#ifndef SINE_MODEL_H
#define SINE_MODEL_H


unsigned int sine_model_len = 2960;
unsigned char sine_model[] = {
 0x20, 0x00, 0x00, 0x00, 0x54, 0x46, 0x4c, 0x33, 0x00, 0x00, 0x00, 0x00,
  0x00, 0x00, 0x12, 0x00, 0x1c, 0x00, 0x04, 0x00, 0x08, 0x00, 0x0c, 0x00,
  0x10, 0x00, 0x14, 0x00, 0x00, 0x00, 0x18, 0x00, 0x12, 0x00, 0x00, 0x00,
  0x03, 0x00, 0x00, 0x00, 0x44, 0x0b, 0x00, 0x00, 0x70, 0x06, 0x00, 0x00,
  0x58, 0x06, 0x00, 0x00, 0x3c, 0x00, 0x00, 0x00, 0x04, 0x00, 0x00, 0x00,
  0x01, 0x00, 0x00, 0x00, 0x0c, 0x00, 0x00, 0x00, 0x08, 0x00, 0x0c, 0x00,
  0x04, 0x00, 0x08, 0x00, 0x08, 0x00, 0x00, 0x00, 0x08, 0x00, 0x00, 0x00,
  0x0b, 0x00, 0x00, 0x00, 0x13, 0x00, 0x00, 0x00, 0x6d, 0x69, 0x6e, 0x5f,
  0x72, 0x75, 0x6e, 0x74, 0x69, 0x6d, 0x65, 0x5f, 0x76, 0x65, 0x72, 0x73,
  0x69, 0x6f, 0x6e, 0x00, 0x0c, 0x00, 0x00, 0x00, 0x08, 0x06, 0x00, 0x00,
  0xf4, 0x05, 0x00, 0x00, 0xd8, 0x05, 0x00, 0x00, 0x74, 0x05, 0x00, 0x00,
  0x20, 0x05, 0x00, 0x00, 0xcc, 0x04, 0x00, 0x00, 0xb8, 0x00, 0x00, 0x00,
  0x64, 0x00, 0x00, 0x00, 0x58, 0x00, 0x00, 0x00, 0x44, 0x00, 0x00, 0x00,
  0x30, 0x00, 0x00, 0x00, 0x04, 0x00, 0x00, 0x00, 0x56, 0xfa, 0xff, 0xff,
  0x04, 0x00, 0x00, 0x00, 0x10, 0x00, 0x00, 0x00, 0x31, 0x2e, 0x35, 0x2e,
  0x30, 0x00, 0x00, 0x00, 0x00, 0x00, 0x00, 0x00, 0x00, 0x00, 0x00, 0x00,
  0x00, 0x00, 0x00, 0x00, 0x00, 0x00, 0x00, 0x00, 0x00, 0x00, 0x00, 0x00,
  0x84, 0xf5, 0xff, 0xff, 0x00, 0x00, 0x00, 0x00, 0x00, 0x00, 0x00, 0x00,
  0x00, 0x00, 0x00, 0x00, 0x94, 0xf5, 0xff, 0xff, 0x00, 0x00, 0x00, 0x00,
  0x00, 0x00, 0x00, 0x00, 0x00, 0x00, 0x00, 0x00, 0xa4, 0xf5, 0xff, 0xff,
  0x00, 0x00, 0x00, 0x00, 0xa6, 0xfa, 0xff, 0xff, 0x04, 0x00, 0x00, 0x00,
  0x40, 0x00, 0x00, 0x00, 0x0f, 0xa2, 0xa5, 0x3f, 0x98, 0xbd, 0x1f, 0x3e,
  0x32, 0x88, 0x99, 0x3f, 0xd6, 0xe5, 0x7f, 0xbe, 0xfb, 0x90, 0x34, 0xbe,
  0x89, 0x24, 0x7e, 0x3e, 0xf3, 0xf8, 0x14, 0xbe, 0x8a, 0xb2, 0xd5, 0x3d,
  0xc3, 0x01, 0xb6, 0x3f, 0x5b, 0xe6, 0x16, 0x3d, 0xed, 0x1a, 0x11, 0xbf,
  0x0f, 0x4b, 0x76, 0x3f, 0x54, 0xed, 0x8c, 0xbf, 0xb1, 0xf7, 0xb3, 0x3e,
  0x1a, 0xdf, 0xc3, 0xbe, 0xad, 0xc2, 0x47, 0xbf, 0x00, 0x00, 0x00, 0x00,
  0xf6, 0xfa, 0xff, 0xff, 0x04, 0x00, 0x00, 0x00, 0x00, 0x04, 0x00, 0x00,
  0xb6, 0xa2, 0xae, 0xbe, 0x5b, 0x29, 0xe8, 0x3d, 0x04, 0xbb, 0x9d, 0xbe,
  0xd5, 0x79, 0xc8, 0x3e, 0x7a, 0x53, 0x65, 0x3e, 0xcd, 0xf1, 0x25, 0xbf,
  0x9d, 0x8b, 0xd0, 0xbd, 0x55, 0xa8, 0xa5, 0x3e, 0x39, 0x16, 0xbb, 0xbe,
  0x6c, 0x6c, 0x9c, 0x3d, 0xb1, 0x39, 0xd3, 0x3e, 0x08, 0x19, 0xb1, 0xbf,
  0x4d, 0xc4, 0xc1, 0x3e, 0xbf, 0xe9, 0x82, 0x3d, 0x45, 0xb2, 0xe9, 0x3e,
  0xd9, 0x1a, 0xb1, 0x3e, 0x9a, 0xba, 0xb3, 0xbe, 0xfc, 0x79, 0xe3, 0xbd,
  0xae, 0xab, 0x4b, 0xbe, 0x78, 0xa6, 0x8c, 0xbe, 0xa8, 0x61, 0x6d, 0x3d,
  0xa2, 0xae, 0x6c, 0x3e, 0x4b, 0x44, 0x1e, 0xbe, 0x6d, 0xbd, 0x86, 0x3e,
  0x1c, 0x43, 0xe9, 0x3d, 0xd4, 0x30, 0x92, 0xbe, 0xd0, 0xe3, 0x60, 0x3d,
  0x76, 0x52, 0xd2, 0xbe, 0x5b, 0x8b, 0x88, 0xbe, 0x71, 0x2a, 0x85, 0xbe,
  0xa3, 0x65, 0xb8, 0x3d, 0xd4, 0x54, 0xf3, 0x3d, 0xbe, 0x8c, 0xa0, 0x3e,
  0x13, 0xb1, 0x79, 0xbe, 0xaa, 0xfb, 0x67, 0xbe, 0x36, 0x02, 0x63, 0xbe,
  0xa9, 0x3d, 0xd4, 0x3e, 0xad, 0x89, 0x0e, 0xbf, 0xec, 0x5b, 0xf6, 0x3e,
  0x0f, 0x20, 0x87, 0xbe, 0x39, 0x95, 0x8b, 0xbe, 0xbe, 0x86, 0x0c, 0x3e,
  0x8a, 0xb2, 0x2c, 0xbe, 0x94, 0x39, 0x93, 0xbf, 0xb0, 0xef, 0x9c, 0xbe,
  0xb4, 0xd6, 0x69, 0xbe, 0x21, 0x43, 0xdc, 0x3d, 0x07, 0xe5, 0xdb, 0x3e,
  0x79, 0xf9, 0xbe, 0x3d, 0x26, 0x08, 0x02, 0xbd, 0x60, 0xda, 0xee, 0x3c,
  0x64, 0x49, 0xcd, 0xbe, 0xf8, 0x6b, 0xb2, 0xbd, 0xbc, 0x04, 0xb7, 0xbd,
  0xbd, 0x94, 0x80, 0x3e, 0xa3, 0x75, 0xaf, 0x3e, 0x9f, 0x31, 0x9c, 0x3e,
  0x2c, 0xf1, 0xa0, 0x3d, 0x3f, 0x61, 0xb8, 0xbd, 0x5b, 0x49, 0xdc, 0x3d,
  0x7c, 0x2c, 0xd5, 0xbd, 0xcc, 0xd1, 0x9b, 0x3e, 0x75, 0xc8, 0xa2, 0xbd,
  0xb0, 0xd9, 0x1c, 0x3d, 0xde, 0xa5, 0x8a, 0x3e, 0xd8, 0x2a, 0x04, 0x3c,
  0x68, 0x46, 0x69, 0xbd, 0x7c, 0xdd, 0x5c, 0x3d, 0x0c, 0xe4, 0x91, 0xbe,
  0x8c, 0x8b, 0x19, 0x3e, 0x80, 0x91, 0xae, 0x3e, 0x3f, 0xb1, 0x98, 0x3e,
  0xd7, 0x89, 0xd3, 0x3e, 0x69, 0xfa, 0x98, 0x3e, 0x09, 0x8f, 0x2b, 0xbe,
  0x0e, 0x71, 0x95, 0xb9, 0xaa, 0x7c, 0x3f, 0xbe, 0xc8, 0x47, 0x84, 0xbe,
  0xb9, 0x36, 0x89, 0xbd, 0x59, 0xb7, 0xbc, 0x3e, 0xd2, 0x51, 0x99, 0x3e,
  0xeb, 0xed, 0xc3, 0x3c, 0x5c, 0x71, 0x31, 0xbe, 0xd9, 0x7f, 0xad, 0x3c,
  0x2d, 0x2b, 0xd9, 0xbe, 0x7c, 0x35, 0x51, 0x3e, 0xf4, 0x73, 0x00, 0x3e,
  0x18, 0x3e, 0x91, 0xbd, 0x78, 0xd8, 0xff, 0xbd, 0x73, 0x02, 0x87, 0x3e,
  0x8a, 0x67, 0xac, 0xbe, 0x08, 0x10, 0x17, 0x3f, 0x77, 0xee, 0x86, 0x3e,
  0x2d, 0x5d, 0xca, 0x3e, 0x1f, 0xc4, 0x08, 0x3e, 0xc0, 0xd7, 0x55, 0x3d,
  0x9d, 0xf7, 0x8a, 0xbc, 0x9e, 0xbb, 0xc3, 0xbc, 0xc6, 0x21, 0x16, 0x3e,
  0x2e, 0xdf, 0xa7, 0xbe, 0xc0, 0x4d, 0xa4, 0x3c, 0x57, 0x03, 0x5c, 0xbe,
  0x46, 0xf1, 0x52, 0x3e, 0x12, 0x21, 0x2c, 0x3e, 0x3e, 0x57, 0xc3, 0xbe,
  0x83, 0x9c, 0xc9, 0x3e, 0x64, 0xf8, 0x84, 0x3e, 0x58, 0xcb, 0xa2, 0xbe,
  0x55, 0x81, 0xb0, 0x3e, 0x04, 0xd6, 0x76, 0x3d, 0x13, 0x0b, 0xc2, 0x3e,
  0x1f, 0xce, 0x56, 0xbe, 0xc8, 0xa7, 0xa3, 0xbd, 0x6c, 0x72, 0xe4, 0xbd,
  0x5e, 0x7a, 0x76, 0x3e, 0x86, 0x66, 0x0a, 0xbe, 0x68, 0xe4, 0x5b, 0x3d,
  0x3a, 0x94, 0x9e, 0xbe, 0x95, 0x87, 0x99, 0x3e, 0x6f, 0xfd, 0x96, 0xbe,
  0x4e, 0xe8, 0x2a, 0xbe, 0xb0, 0x1d, 0x2e, 0xbd, 0xc6, 0x07, 0xd1, 0xbd,
  0xd3, 0xde, 0xda, 0x3e, 0xa7, 0xee, 0xc1, 0xbe, 0x9e, 0xdf, 0x32, 0xbd,
  0xa7, 0x6d, 0x0e, 0xbe, 0x1c, 0x2c, 0xe7, 0x3d, 0xa4, 0x73, 0xc1, 0x3d,
  0xa1, 0xcf, 0xae, 0xbe, 0x69, 0x56, 0x99, 0x3e, 0x3a, 0xf3, 0xd4, 0x3d,
  0x85, 0x1f, 0x8a, 0x3e, 0xb8, 0xd7, 0x58, 0x3d, 0x59, 0x72, 0x85, 0xbe,
  0x9a, 0xa0, 0x26, 0x3e, 0xe0, 0x02, 0xa9, 0xbc, 0x40, 0x16, 0x50, 0xbe,
  0x0a, 0x92, 0xc6, 0xbe, 0x10, 0xf0, 0x7d, 0x3b, 0x03, 0x56, 0x43, 0xbe,
  0x90, 0x69, 0xe5, 0x3e, 0xa5, 0x39, 0xa7, 0x3d, 0xa4, 0x65, 0x9c, 0x3d,
  0x22, 0xed, 0x5d, 0xbe, 0xce, 0x9b, 0x5e, 0x3e, 0x2c, 0x13, 0x2b, 0xbe,
  0xe9, 0x93, 0x92, 0xbe, 0x82, 0x7b, 0x65, 0x3e, 0xf8, 0x92, 0x3d, 0xbd,
  0x88, 0x91, 0xe0, 0xbe, 0xb1, 0x8d, 0x3b, 0xbe, 0xa6, 0xbf, 0x96, 0xbe,
  0x46, 0xd8, 0x5f, 0x3e, 0x43, 0x04, 0xe3, 0x3d, 0xa0, 0xb6, 0x65, 0x3c,
  0x76, 0xc2, 0x76, 0x3e, 0x24, 0x44, 0xe2, 0x3d, 0xd3, 0xe7, 0xbe, 0xbc,
  0xe0, 0x84, 0x1f, 0x3d, 0xd9, 0xf7, 0x9a, 0x3e, 0xe1, 0x3b, 0xf3, 0x3e,
  0x6c, 0xbb, 0xda, 0xbd, 0x70, 0x09, 0x57, 0x3e, 0x3d, 0xd8, 0xab, 0x3e,
  0xa7, 0xe1, 0xcc, 0xbd, 0xd2, 0x9b, 0xab, 0xbe, 0x8e, 0xa4, 0x77, 0x3e,
  0x50, 0x39, 0xeb, 0x3c, 0x80, 0xf2, 0xb1, 0xbd, 0x31, 0x2b, 0x9a, 0x3e,
  0xb9, 0xd3, 0x3e, 0xbe, 0xd6, 0xa5, 0x0d, 0xbe, 0x0b, 0xe4, 0xa6, 0x3d,
  0xb5, 0x16, 0x23, 0x3d, 0xaf, 0x3e, 0x85, 0x3e, 0xff, 0xb1, 0x5a, 0xbe,
  0x2b, 0xea, 0x19, 0x3e, 0xb0, 0x88, 0x48, 0xbd, 0xe0, 0x89, 0x4f, 0x3b,
  0xf8, 0x60, 0x26, 0xbe, 0x1b, 0xf6, 0x38, 0xbe, 0xa8, 0xba, 0xe7, 0xbd,
  0x4a, 0xaf, 0x68, 0x3e, 0x59, 0x1b, 0xda, 0x3e, 0x7f, 0x99, 0xce, 0x3e,
  0x9b, 0xa4, 0xea, 0x3d, 0x28, 0xa5, 0x9b, 0xbf, 0x00, 0x9c, 0xfc, 0xb9,
  0x35, 0xd5, 0xb9, 0x3e, 0x9c, 0x33, 0xd5, 0xba, 0x8b, 0x9e, 0x3c, 0xbe,
  0xab, 0xdb, 0x14, 0x3d, 0xb9, 0x60, 0xb3, 0xbd, 0x4c, 0x00, 0x83, 0x3d,
  0xba, 0x56, 0xaf, 0xbe, 0x30, 0x4f, 0x3b, 0x3d, 0x5c, 0xdf, 0x9b, 0x3e,
  0xc9, 0x3a, 0x84, 0xbe, 0x0f, 0x69, 0x3d, 0xbe, 0x6f, 0xb8, 0xc9, 0x3e,
  0x67, 0x16, 0xdd, 0x3e, 0xa1, 0x27, 0x26, 0x3f, 0xec, 0x15, 0x7c, 0xbe,
  0xca, 0xaf, 0xc0, 0xbe, 0x78, 0xc8, 0x91, 0x3c, 0x51, 0x69, 0x82, 0xbe,
  0xfb, 0x82, 0xb2, 0x3e, 0xc4, 0xf2, 0xb6, 0xbe, 0x46, 0x07, 0x89, 0x3d,
  0x98, 0xa3, 0x34, 0x3d, 0xa6, 0x7c, 0x95, 0x3e, 0xce, 0x6b, 0xa5, 0xbe,
  0xab, 0xd6, 0xec, 0xbd, 0x9e, 0xad, 0x28, 0x3d, 0x3a, 0x72, 0x3e, 0x3e,
  0x00, 0xf0, 0x86, 0x3c, 0xdb, 0x8e, 0xda, 0x3e, 0x4e, 0xe6, 0x82, 0xbe,
  0x7a, 0xd1, 0x62, 0xbd, 0xa3, 0xf7, 0x95, 0xbe, 0x5a, 0x73, 0x16, 0x3e,
  0xc2, 0xe1, 0xbc, 0x3e, 0x67, 0xb2, 0xb6, 0x3e, 0x8e, 0x5c, 0xcd, 0x3e,
  0xf0, 0x4e, 0xbf, 0x3e, 0x87, 0x4f, 0xd7, 0xbe, 0x01, 0x78, 0x30, 0x3e,
  0x61, 0x0c, 0x93, 0xbe, 0xb9, 0xc4, 0xaa, 0xbe, 0x80, 0x11, 0x45, 0x3c,
  0x40, 0xaa, 0x62, 0xbc, 0x70, 0xe6, 0x95, 0xbc, 0x20, 0x19, 0x28, 0xbe,
  0x41, 0x27, 0x68, 0x3d, 0xb8, 0xdc, 0x23, 0xbf, 0xc8, 0xfe, 0xa2, 0xbd,
  0x1f, 0x9d, 0xa9, 0xbe, 0xaf, 0xac, 0xc5, 0x3e, 0xaa, 0x67, 0x38, 0x3e,
  0xf3, 0xaa, 0xed, 0x3c, 0x09, 0xd8, 0x70, 0xbe, 0xdc, 0xc7, 0xee, 0xbd,
  0xf6, 0x6c, 0xa0, 0xbe, 0xbd, 0x35, 0x8a, 0x3e, 0x61, 0xa7, 0xfc, 0x3c,
  0x33, 0xfa, 0x4b, 0xbe, 0xf9, 0x73, 0xd3, 0x3e, 0x58, 0x17, 0xc0, 0xbe,
  0xf6, 0xdf, 0x2f, 0x3e, 0xb7, 0x9d, 0xa6, 0x3e, 0x66, 0x03, 0x74, 0x3e,
  0x40, 0xc7, 0xa8, 0xbe, 0x71, 0x4e, 0x8f, 0xbd, 0xd3, 0xa3, 0x0d, 0x3e,
  0x9e, 0xcd, 0xd5, 0xbe, 0x00, 0x00, 0x00, 0x00, 0x06, 0xff, 0xff, 0xff,
  0x04, 0x00, 0x00, 0x00, 0x40, 0x00, 0x00, 0x00, 0xb4, 0xe7, 0x0a, 0x3f,
  0xc5, 0x62, 0x34, 0x3e, 0xe0, 0x89, 0x59, 0xbd, 0x73, 0x58, 0xbf, 0x3e,
  0x7e, 0xef, 0x06, 0xbf, 0x89, 0xbe, 0xee, 0x3e, 0x44, 0xc5, 0xeb, 0x3e,
  0x55, 0xf9, 0xb3, 0xbe, 0x38, 0xce, 0x8e, 0xbd, 0x5c, 0x5c, 0x02, 0xbf,
  0x18, 0x7c, 0x11, 0xbc, 0x44, 0xce, 0x25, 0x3e, 0xeb, 0xe8, 0x01, 0xbf,
  0x65, 0xf3, 0x0d, 0x3f, 0x4e, 0x51, 0x02, 0x3f, 0x7a, 0xb0, 0x79, 0xbe,
  0x00, 0x00, 0x00, 0x00, 0x56, 0xff, 0xff, 0xff, 0x04, 0x00, 0x00, 0x00,
  0x40, 0x00, 0x00, 0x00, 0x97, 0x58, 0x80, 0xbe, 0x27, 0xd7, 0x2c, 0x3e,
  0x00, 0x00, 0x00, 0x00, 0x1f, 0x48, 0xfc, 0xbc, 0x00, 0x00, 0x00, 0x00,
  0x84, 0x6d, 0x0e, 0xbf, 0x7f, 0xb2, 0x3a, 0x3e, 0x00, 0x00, 0x00, 0x00,
  0x00, 0x00, 0x00, 0x00, 0x00, 0x00, 0x00, 0x00, 0x72, 0x40, 0x02, 0x3f,
  0xd6, 0x1f, 0xbc, 0xbe, 0x00, 0x00, 0x00, 0x00, 0x92, 0xb2, 0x8a, 0xbe,
  0xe9, 0xe8, 0x79, 0x3d, 0x00, 0x00, 0x00, 0x00, 0x00, 0x00, 0x00, 0x00,
  0xa6, 0xff, 0xff, 0xff, 0x04, 0x00, 0x00, 0x00, 0x40, 0x00, 0x00, 0x00,
  0xcd, 0x72, 0xa6, 0x3e, 0xb7, 0x33, 0xcf, 0xbb, 0xe7, 0x41, 0xa6, 0x3e,
  0x92, 0x70, 0xa4, 0x3c, 0xef, 0x5b, 0xf3, 0x3c, 0x5e, 0x01, 0x8d, 0xbe,
  0x3b, 0xc9, 0x9e, 0x3b, 0x3c, 0x82, 0x4d, 0xbc, 0x5d, 0x48, 0x10, 0xbf,
  0x90, 0x17, 0x4f, 0xbc, 0x90, 0xdf, 0x34, 0x3d, 0x0e, 0xa0, 0xae, 0x3e,
  0xe3, 0x7a, 0x92, 0x3e, 0x2e, 0xc0, 0x8d, 0xbe, 0x6c, 0xf5, 0xca, 0x3c,
  0x7a, 0x11, 0x55, 0x3e, 0x00, 0x00, 0x00, 0x00, 0x00, 0x00, 0x00, 0x00,
  0x00, 0x00, 0x00, 0x00, 0x00, 0x00, 0x06, 0x00, 0x08, 0x00, 0x04, 0x00,
  0x06, 0x00, 0x00, 0x00, 0x04, 0x00, 0x00, 0x00, 0x04, 0x00, 0x00, 0x00,
  0xa9, 0x85, 0xbd, 0xbe, 0x00, 0x00, 0x00, 0x00, 0x00, 0x00, 0x00, 0x00,
  0x24, 0xfb, 0xff, 0xff, 0x00, 0x00, 0x00, 0x00, 0x00, 0x00, 0x00, 0x00,
  0x00, 0x00, 0x00, 0x00, 0x34, 0xfb, 0xff, 0xff, 0x00, 0x00, 0x00, 0x00,
  0x00, 0x00, 0x00, 0x00, 0x0f, 0x00, 0x00, 0x00, 0x4d, 0x4c, 0x49, 0x52,
  0x20, 0x43, 0x6f, 0x6e, 0x76, 0x65, 0x72, 0x74, 0x65, 0x64, 0x2e, 0x00,
  0x01, 0x00, 0x00, 0x00, 0x14, 0x00, 0x00, 0x00, 0x00, 0x00, 0x0e, 0x00,
  0x18, 0x00, 0x04, 0x00, 0x08, 0x00, 0x0c, 0x00, 0x10, 0x00, 0x14, 0x00,
  0x0e, 0x00, 0x00, 0x00, 0x00, 0x01, 0x00, 0x00, 0xf4, 0x00, 0x00, 0x00,
  0xe8, 0x00, 0x00, 0x00, 0x14, 0x00, 0x00, 0x00, 0x04, 0x00, 0x00, 0x00,
  0x04, 0x00, 0x00, 0x00, 0x6d, 0x61, 0x69, 0x6e, 0x00, 0x00, 0x00, 0x00,
  0x03, 0x00, 0x00, 0x00, 0x90, 0x00, 0x00, 0x00, 0x48, 0x00, 0x00, 0x00,
  0x04, 0x00, 0x00, 0x00, 0xce, 0xff, 0xff, 0xff, 0x00, 0x00, 0x00, 0x08,
  0x18, 0x00, 0x00, 0x00, 0x0c, 0x00, 0x00, 0x00, 0x04, 0x00, 0x00, 0x00,
  0xb4, 0xfb, 0xff, 0xff, 0x01, 0x00, 0x00, 0x00, 0x09, 0x00, 0x00, 0x00,
  0x03, 0x00, 0x00, 0x00, 0x08, 0x00, 0x00, 0x00, 0x06, 0x00, 0x00, 0x00,
  0x01, 0x00, 0x00, 0x00, 0x00, 0x00, 0x0e, 0x00, 0x14, 0x00, 0x00, 0x00,
  0x08, 0x00, 0x0c, 0x00, 0x07, 0x00, 0x10, 0x00, 0x0e, 0x00, 0x00, 0x00,
  0x00, 0x00, 0x00, 0x08, 0x1c, 0x00, 0x00, 0x00, 0x10, 0x00, 0x00, 0x00,
  0x04, 0x00, 0x00, 0x00, 0xba, 0xff, 0xff, 0xff, 0x00, 0x00, 0x00, 0x01,
  0x01, 0x00, 0x00, 0x00, 0x08, 0x00, 0x00, 0x00, 0x03, 0x00, 0x00, 0x00,
  0x07, 0x00, 0x00, 0x00, 0x05, 0x00, 0x00, 0x00, 0x02, 0x00, 0x00, 0x00,
  0x00, 0x00, 0x0e, 0x00, 0x16, 0x00, 0x00, 0x00, 0x08, 0x00, 0x0c, 0x00,
  0x07, 0x00, 0x10, 0x00, 0x0e, 0x00, 0x00, 0x00, 0x00, 0x00, 0x00, 0x08,
  0x24, 0x00, 0x00, 0x00, 0x18, 0x00, 0x00, 0x00, 0x0c, 0x00, 0x00, 0x00,
  0x00, 0x00, 0x06, 0x00, 0x08, 0x00, 0x07, 0x00, 0x06, 0x00, 0x00, 0x00,
  0x00, 0x00, 0x00, 0x01, 0x01, 0x00, 0x00, 0x00, 0x07, 0x00, 0x00, 0x00,
  0x03, 0x00, 0x00, 0x00, 0x00, 0x00, 0x00, 0x00, 0x04, 0x00, 0x00, 0x00,
  0x03, 0x00, 0x00, 0x00, 0x01, 0x00, 0x00, 0x00, 0x09, 0x00, 0x00, 0x00,
  0x01, 0x00, 0x00, 0x00, 0x00, 0x00, 0x00, 0x00, 0x0a, 0x00, 0x00, 0x00,
  0x68, 0x03, 0x00, 0x00, 0xf8, 0x02, 0x00, 0x00, 0x8c, 0x02, 0x00, 0x00,
  0x30, 0x02, 0x00, 0x00, 0xec, 0x01, 0x00, 0x00, 0xa4, 0x01, 0x00, 0x00,
  0x5c, 0x01, 0x00, 0x00, 0xd8, 0x00, 0x00, 0x00, 0x4c, 0x00, 0x00, 0x00,
  0x04, 0x00, 0x00, 0x00, 0xd4, 0xfc, 0xff, 0xff, 0x34, 0x00, 0x00, 0x00,
  0x0a, 0x00, 0x00, 0x00, 0x1c, 0x00, 0x00, 0x00, 0x14, 0x00, 0x00, 0x00,
  0x04, 0x00, 0x00, 0x00, 0x02, 0x00, 0x00, 0x00, 0xff, 0xff, 0xff, 0xff,
  0x01, 0x00, 0x00, 0x00, 0xc0, 0xfc, 0xff, 0xff, 0x08, 0x00, 0x00, 0x00,
  0x49, 0x64, 0x65, 0x6e, 0x74, 0x69, 0x74, 0x79, 0x00, 0x00, 0x00, 0x00,
  0x02, 0x00, 0x00, 0x00, 0x01, 0x00, 0x00, 0x00, 0x01, 0x00, 0x00, 0x00,
  0x18, 0xfd, 0xff, 0xff, 0x78, 0x00, 0x00, 0x00, 0x09, 0x00, 0x00, 0x00,
  0x1c, 0x00, 0x00, 0x00, 0x14, 0x00, 0x00, 0x00, 0x04, 0x00, 0x00, 0x00,
  0x02, 0x00, 0x00, 0x00, 0xff, 0xff, 0xff, 0xff, 0x10, 0x00, 0x00, 0x00,
  0x04, 0xfd, 0xff, 0xff, 0x4c, 0x00, 0x00, 0x00, 0x73, 0x65, 0x71, 0x75,
  0x65, 0x6e, 0x74, 0x69, 0x61, 0x6c, 0x2f, 0x64, 0x65, 0x6e, 0x73, 0x65,
  0x5f, 0x31, 0x2f, 0x4d, 0x61, 0x74, 0x4d, 0x75, 0x6c, 0x3b, 0x73, 0x65,
  0x71, 0x75, 0x65, 0x6e, 0x74, 0x69, 0x61, 0x6c, 0x2f, 0x64, 0x65, 0x6e,
  0x73, 0x65, 0x5f, 0x31, 0x2f, 0x52, 0x65, 0x6c, 0x75, 0x3b, 0x73, 0x65,
  0x71, 0x75, 0x65, 0x6e, 0x74, 0x69, 0x61, 0x6c, 0x2f, 0x64, 0x65, 0x6e,
  0x73, 0x65, 0x5f, 0x31, 0x2f, 0x42, 0x69, 0x61, 0x73, 0x41, 0x64, 0x64,
  0x00, 0x00, 0x00, 0x00, 0x02, 0x00, 0x00, 0x00, 0x01, 0x00, 0x00, 0x00,
  0x10, 0x00, 0x00, 0x00, 0xa0, 0xfd, 0xff, 0xff, 0x70, 0x00, 0x00, 0x00,
  0x08, 0x00, 0x00, 0x00, 0x1c, 0x00, 0x00, 0x00, 0x14, 0x00, 0x00, 0x00,
  0x04, 0x00, 0x00, 0x00, 0x02, 0x00, 0x00, 0x00, 0xff, 0xff, 0xff, 0xff,
  0x10, 0x00, 0x00, 0x00, 0x8c, 0xfd, 0xff, 0xff, 0x46, 0x00, 0x00, 0x00,
  0x73, 0x65, 0x71, 0x75, 0x65, 0x6e, 0x74, 0x69, 0x61, 0x6c, 0x2f, 0x64,
  0x65, 0x6e, 0x73, 0x65, 0x2f, 0x4d, 0x61, 0x74, 0x4d, 0x75, 0x6c, 0x3b,
  0x73, 0x65, 0x71, 0x75, 0x65, 0x6e, 0x74, 0x69, 0x61, 0x6c, 0x2f, 0x64,
  0x65, 0x6e, 0x73, 0x65, 0x2f, 0x52, 0x65, 0x6c, 0x75, 0x3b, 0x73, 0x65,
  0x71, 0x75, 0x65, 0x6e, 0x74, 0x69, 0x61, 0x6c, 0x2f, 0x64, 0x65, 0x6e,
  0x73, 0x65, 0x2f, 0x42, 0x69, 0x61, 0x73, 0x41, 0x64, 0x64, 0x00, 0x00,
  0x02, 0x00, 0x00, 0x00, 0x01, 0x00, 0x00, 0x00, 0x10, 0x00, 0x00, 0x00,
  0x86, 0xfe, 0xff, 0xff, 0x34, 0x00, 0x00, 0x00, 0x07, 0x00, 0x00, 0x00,
  0x0c, 0x00, 0x00, 0x00, 0x04, 0x00, 0x00, 0x00, 0xfc, 0xfd, 0xff, 0xff,
  0x19, 0x00, 0x00, 0x00, 0x73, 0x65, 0x71, 0x75, 0x65, 0x6e, 0x74, 0x69,
  0x61, 0x6c, 0x2f, 0x64, 0x65, 0x6e, 0x73, 0x65, 0x5f, 0x32, 0x2f, 0x4d,
  0x61, 0x74, 0x4d, 0x75, 0x6c, 0x00, 0x00, 0x00, 0x02, 0x00, 0x00, 0x00,
  0x01, 0x00, 0x00, 0x00, 0x10, 0x00, 0x00, 0x00, 0xca, 0xfe, 0xff, 0xff,
  0x34, 0x00, 0x00, 0x00, 0x06, 0x00, 0x00, 0x00, 0x0c, 0x00, 0x00, 0x00,
  0x04, 0x00, 0x00, 0x00, 0x40, 0xfe, 0xff, 0xff, 0x19, 0x00, 0x00, 0x00,
  0x73, 0x65, 0x71, 0x75, 0x65, 0x6e, 0x74, 0x69, 0x61, 0x6c, 0x2f, 0x64,
  0x65, 0x6e, 0x73, 0x65, 0x5f, 0x31, 0x2f, 0x4d, 0x61, 0x74, 0x4d, 0x75,
  0x6c, 0x00, 0x00, 0x00, 0x02, 0x00, 0x00, 0x00, 0x10, 0x00, 0x00, 0x00,
  0x10, 0x00, 0x00, 0x00, 0x0e, 0xff, 0xff, 0xff, 0x30, 0x00, 0x00, 0x00,
  0x05, 0x00, 0x00, 0x00, 0x0c, 0x00, 0x00, 0x00, 0x04, 0x00, 0x00, 0x00,
  0x84, 0xfe, 0xff, 0xff, 0x17, 0x00, 0x00, 0x00, 0x73, 0x65, 0x71, 0x75,
  0x65, 0x6e, 0x74, 0x69, 0x61, 0x6c, 0x2f, 0x64, 0x65, 0x6e, 0x73, 0x65,
  0x2f, 0x4d, 0x61, 0x74, 0x4d, 0x75, 0x6c, 0x00, 0x02, 0x00, 0x00, 0x00,
  0x10, 0x00, 0x00, 0x00, 0x01, 0x00, 0x00, 0x00, 0x4e, 0xff, 0xff, 0xff,
  0x4c, 0x00, 0x00, 0x00, 0x04, 0x00, 0x00, 0x00, 0x0c, 0x00, 0x00, 0x00,
  0x04, 0x00, 0x00, 0x00, 0xc4, 0xfe, 0xff, 0xff, 0x30, 0x00, 0x00, 0x00,
  0x73, 0x65, 0x71, 0x75, 0x65, 0x6e, 0x74, 0x69, 0x61, 0x6c, 0x2f, 0x64,
  0x65, 0x6e, 0x73, 0x65, 0x2f, 0x42, 0x69, 0x61, 0x73, 0x41, 0x64, 0x64,
  0x2f, 0x52, 0x65, 0x61, 0x64, 0x56, 0x61, 0x72, 0x69, 0x61, 0x62, 0x6c,
  0x65, 0x4f, 0x70, 0x2f, 0x72, 0x65, 0x73, 0x6f, 0x75, 0x72, 0x63, 0x65,
  0x00, 0x00, 0x00, 0x00, 0x01, 0x00, 0x00, 0x00, 0x10, 0x00, 0x00, 0x00,
  0xa6, 0xff, 0xff, 0xff, 0x4c, 0x00, 0x00, 0x00, 0x03, 0x00, 0x00, 0x00,
  0x0c, 0x00, 0x00, 0x00, 0x04, 0x00, 0x00, 0x00, 0x1c, 0xff, 0xff, 0xff,
  0x32, 0x00, 0x00, 0x00, 0x73, 0x65, 0x71, 0x75, 0x65, 0x6e, 0x74, 0x69,
  0x61, 0x6c, 0x2f, 0x64, 0x65, 0x6e, 0x73, 0x65, 0x5f, 0x31, 0x2f, 0x42,
  0x69, 0x61, 0x73, 0x41, 0x64, 0x64, 0x2f, 0x52, 0x65, 0x61, 0x64, 0x56,
  0x61, 0x72, 0x69, 0x61, 0x62, 0x6c, 0x65, 0x4f, 0x70, 0x2f, 0x72, 0x65,
  0x73, 0x6f, 0x75, 0x72, 0x63, 0x65, 0x00, 0x00, 0x01, 0x00, 0x00, 0x00,
  0x10, 0x00, 0x00, 0x00, 0x00, 0x00, 0x0e, 0x00, 0x14, 0x00, 0x04, 0x00,
  0x00, 0x00, 0x08, 0x00, 0x0c, 0x00, 0x10, 0x00, 0x0e, 0x00, 0x00, 0x00,
  0x4c, 0x00, 0x00, 0x00, 0x02, 0x00, 0x00, 0x00, 0x0c, 0x00, 0x00, 0x00,
  0x04, 0x00, 0x00, 0x00, 0x84, 0xff, 0xff, 0xff, 0x32, 0x00, 0x00, 0x00,
  0x73, 0x65, 0x71, 0x75, 0x65, 0x6e, 0x74, 0x69, 0x61, 0x6c, 0x2f, 0x64,
  0x65, 0x6e, 0x73, 0x65, 0x5f, 0x32, 0x2f, 0x42, 0x69, 0x61, 0x73, 0x41,
  0x64, 0x64, 0x2f, 0x52, 0x65, 0x61, 0x64, 0x56, 0x61, 0x72, 0x69, 0x61,
  0x62, 0x6c, 0x65, 0x4f, 0x70, 0x2f, 0x72, 0x65, 0x73, 0x6f, 0x75, 0x72,
  0x63, 0x65, 0x00, 0x00, 0x01, 0x00, 0x00, 0x00, 0x01, 0x00, 0x00, 0x00,
  0x14, 0x00, 0x18, 0x00, 0x04, 0x00, 0x00, 0x00, 0x08, 0x00, 0x0c, 0x00,
  0x10, 0x00, 0x00, 0x00, 0x00, 0x00, 0x14, 0x00, 0x14, 0x00, 0x00, 0x00,
  0x38, 0x00, 0x00, 0x00, 0x01, 0x00, 0x00, 0x00, 0x20, 0x00, 0x00, 0x00,
  0x18, 0x00, 0x00, 0x00, 0x04, 0x00, 0x00, 0x00, 0x02, 0x00, 0x00, 0x00,
  0xff, 0xff, 0xff, 0xff, 0x01, 0x00, 0x00, 0x00, 0x04, 0x00, 0x04, 0x00,
  0x04, 0x00, 0x00, 0x00, 0x0b, 0x00, 0x00, 0x00, 0x64, 0x65, 0x6e, 0x73,
  0x65, 0x5f, 0x69, 0x6e, 0x70, 0x75, 0x74, 0x00, 0x02, 0x00, 0x00, 0x00,
  0x01, 0x00, 0x00, 0x00, 0x01, 0x00, 0x00, 0x00, 0x01, 0x00, 0x00, 0x00,
  0x10, 0x00, 0x00, 0x00, 0x0c, 0x00, 0x10, 0x00, 0x07, 0x00, 0x00, 0x00,
  0x08, 0x00, 0x0c, 0x00, 0x0c, 0x00, 0x00, 0x00, 0x00, 0x00, 0x00, 0x09,
  0x09, 0x00, 0x00, 0x00, 0x09, 0x00, 0x00, 0x00
};

#endif //SINE_MODEL_H
