#ifndef SINE_MODEL_H
#define SINE_MODEL_H


unsigned int sine_model_len = 4352;
unsigned char sine_model[] = {
 0x1c, 0x00, 0x00, 0x00, 0x54, 0x46, 0x4c, 0x33, 0x14, 0x00, 0x20, 0x00,
  0x04, 0x00, 0x08, 0x00, 0x0c, 0x00, 0x10, 0x00, 0x14, 0x00, 0x00, 0x00,
  0x18, 0x00, 0x1c, 0x00, 0x14, 0x00, 0x00, 0x00, 0x03, 0x00, 0x00, 0x00,
  0x18, 0x00, 0x00, 0x00, 0x1c, 0x00, 0x00, 0x00, 0x30, 0x01, 0x00, 0x00,
  0x1c, 0x00, 0x00, 0x00, 0xd8, 0x00, 0x00, 0x00, 0x54, 0x00, 0x00, 0x00,
  0x01, 0x00, 0x00, 0x00, 0x24, 0x04, 0x00, 0x00, 0x01, 0x00, 0x00, 0x00,
  0x38, 0x01, 0x00, 0x00, 0x0f, 0x00, 0x00, 0x00, 0xac, 0x10, 0x00, 0x00,
  0xa8, 0x10, 0x00, 0x00, 0xe0, 0x0f, 0x00, 0x00, 0x50, 0x0f, 0x00, 0x00,
  0xcc, 0x0e, 0x00, 0x00, 0x4c, 0x0e, 0x00, 0x00, 0xbc, 0x0d, 0x00, 0x00,
  0x68, 0x09, 0x00, 0x00, 0x14, 0x05, 0x00, 0x00, 0x80, 0x04, 0x00, 0x00,
  0x84, 0x10, 0x00, 0x00, 0x80, 0x10, 0x00, 0x00, 0x7c, 0x10, 0x00, 0x00,
  0x78, 0x10, 0x00, 0x00, 0xb8, 0x00, 0x00, 0x00, 0x01, 0x00, 0x00, 0x00,
  0x10, 0x00, 0x00, 0x00, 0x00, 0x00, 0x0a, 0x00, 0x10, 0x00, 0x0c, 0x00,
  0x08, 0x00, 0x04, 0x00, 0x0a, 0x00, 0x00, 0x00, 0x0c, 0x00, 0x00, 0x00,
  0x1c, 0x00, 0x00, 0x00, 0x20, 0x00, 0x00, 0x00, 0x0f, 0x00, 0x00, 0x00,
  0x73, 0x65, 0x72, 0x76, 0x69, 0x6e, 0x67, 0x5f, 0x64, 0x65, 0x66, 0x61,
  0x75, 0x6c, 0x74, 0x00, 0x01, 0x00, 0x00, 0x00, 0x14, 0x00, 0x00, 0x00,
  0x01, 0x00, 0x00, 0x00, 0x24, 0x00, 0x00, 0x00, 0x08, 0x00, 0x0c, 0x00,
  0x08, 0x00, 0x04, 0x00, 0x08, 0x00, 0x00, 0x00, 0x0c, 0x00, 0x00, 0x00,
  0x04, 0x00, 0x00, 0x00, 0x07, 0x00, 0x00, 0x00, 0x64, 0x65, 0x6e, 0x73,
  0x65, 0x5f, 0x33, 0x00, 0xc2, 0xf0, 0xff, 0xff, 0x04, 0x00, 0x00, 0x00,
  0x0b, 0x00, 0x00, 0x00, 0x64, 0x65, 0x6e, 0x73, 0x65, 0x5f, 0x69, 0x6e,
  0x70, 0x75, 0x74, 0x00, 0x01, 0x00, 0x00, 0x00, 0x0c, 0x00, 0x00, 0x00,
  0x08, 0x00, 0x0c, 0x00, 0x04, 0x00, 0x08, 0x00, 0x08, 0x00, 0x00, 0x00,
  0x08, 0x00, 0x00, 0x00, 0x0e, 0x00, 0x00, 0x00, 0x13, 0x00, 0x00, 0x00,
  0x6d, 0x69, 0x6e, 0x5f, 0x72, 0x75, 0x6e, 0x74, 0x69, 0x6d, 0x65, 0x5f,
  0x76, 0x65, 0x72, 0x73, 0x69, 0x6f, 0x6e, 0x00, 0x0e, 0xf1, 0xff, 0xff,
  0x04, 0x00, 0x00, 0x00, 0x10, 0x00, 0x00, 0x00, 0x31, 0x2e, 0x35, 0x2e,
  0x30, 0x00, 0x00, 0x00, 0x00, 0x00, 0x00, 0x00, 0x00, 0x00, 0x00, 0x00,
  0x0f, 0x00, 0x00, 0x00, 0x4d, 0x4c, 0x49, 0x52, 0x20, 0x43, 0x6f, 0x6e,
  0x76, 0x65, 0x72, 0x74, 0x65, 0x64, 0x2e, 0x00, 0x00, 0x00, 0x0e, 0x00,
  0x18, 0x00, 0x04, 0x00, 0x08, 0x00, 0x0c, 0x00, 0x10, 0x00, 0x14, 0x00,
  0x0e, 0x00, 0x00, 0x00, 0x14, 0x00, 0x00, 0x00, 0x48, 0x00, 0x00, 0x00,
  0x4c, 0x00, 0x00, 0x00, 0x50, 0x00, 0x00, 0x00, 0x60, 0x00, 0x00, 0x00,
  0x0d, 0x00, 0x00, 0x00, 0x04, 0x0f, 0x00, 0x00, 0xb8, 0x0e, 0x00, 0x00,
  0x54, 0x0e, 0x00, 0x00, 0xd0, 0x0d, 0x00, 0x00, 0x50, 0x0d, 0x00, 0x00,
  0xc0, 0x0c, 0x00, 0x00, 0x2c, 0x0c, 0x00, 0x00, 0xd8, 0x07, 0x00, 0x00,
  0x84, 0x03, 0x00, 0x00, 0xb4, 0x02, 0x00, 0x00, 0xc0, 0x01, 0x00, 0x00,
  0xf0, 0x00, 0x00, 0x00, 0x64, 0x00, 0x00, 0x00, 0x01, 0x00, 0x00, 0x00,
  0x00, 0x00, 0x00, 0x00, 0x01, 0x00, 0x00, 0x00, 0x0c, 0x00, 0x00, 0x00,
  0x04, 0x00, 0x00, 0x00, 0x38, 0x02, 0x00, 0x00, 0x68, 0x01, 0x00, 0x00,
  0x98, 0x00, 0x00, 0x00, 0x10, 0x00, 0x00, 0x00, 0x04, 0x00, 0x00, 0x00,
  0x6d, 0x61, 0x69, 0x6e, 0x00, 0x00, 0x00, 0x00, 0xbe, 0xfe, 0xff, 0xff,
  0x00, 0x00, 0x00, 0x08, 0x18, 0x00, 0x00, 0x00, 0x0c, 0x00, 0x00, 0x00,
  0x04, 0x00, 0x00, 0x00, 0x1c, 0xf1, 0xff, 0xff, 0x01, 0x00, 0x00, 0x00,
  0x0c, 0x00, 0x00, 0x00, 0x03, 0x00, 0x00, 0x00, 0x0b, 0x00, 0x00, 0x00,
  0x08, 0x00, 0x00, 0x00, 0x01, 0x00, 0x00, 0x00, 0xa4, 0xf1, 0xff, 0xff,
  0x14, 0x00, 0x00, 0x00, 0x0d, 0x00, 0x00, 0x00, 0x18, 0x00, 0x00, 0x00,
  0x40, 0x00, 0x00, 0x00, 0x30, 0x00, 0x00, 0x00, 0x02, 0x00, 0x00, 0x00,
  0x01, 0x00, 0x00, 0x00, 0x01, 0x00, 0x00, 0x00, 0x19, 0x00, 0x00, 0x00,
  0x53, 0x74, 0x61, 0x74, 0x65, 0x66, 0x75, 0x6c, 0x50, 0x61, 0x72, 0x74,
  0x69, 0x74, 0x69, 0x6f, 0x6e, 0x65, 0x64, 0x43, 0x61, 0x6c, 0x6c, 0x3a,
  0x30, 0x00, 0x00, 0x00, 0x02, 0x00, 0x00, 0x00, 0xff, 0xff, 0xff, 0xff,
  0x01, 0x00, 0x00, 0x00, 0x88, 0xf1, 0xff, 0xff, 0x42, 0xff, 0xff, 0xff,
  0x00, 0x00, 0x00, 0x08, 0x1c, 0x00, 0x00, 0x00, 0x10, 0x00, 0x00, 0x00,
  0x04, 0x00, 0x00, 0x00, 0x66, 0xfe, 0xff, 0xff, 0x00, 0x00, 0x00, 0x01,
  0x01, 0x00, 0x00, 0x00, 0x0b, 0x00, 0x00, 0x00, 0x03, 0x00, 0x00, 0x00,
  0x0a, 0x00, 0x00, 0x00, 0x07, 0x00, 0x00, 0x00, 0x02, 0x00, 0x00, 0x00,
  0x2c, 0xf2, 0xff, 0xff, 0x14, 0x00, 0x00, 0x00, 0x0c, 0x00, 0x00, 0x00,
  0x18, 0x00, 0x00, 0x00, 0x74, 0x00, 0x00, 0x00, 0x64, 0x00, 0x00, 0x00,
  0x02, 0x00, 0x00, 0x00, 0x01, 0x00, 0x00, 0x00, 0x10, 0x00, 0x00, 0x00,
  0x4c, 0x00, 0x00, 0x00, 0x73, 0x65, 0x71, 0x75, 0x65, 0x6e, 0x74, 0x69,
  0x61, 0x6c, 0x2f, 0x64, 0x65, 0x6e, 0x73, 0x65, 0x5f, 0x32, 0x2f, 0x4d,
  0x61, 0x74, 0x4d, 0x75, 0x6c, 0x3b, 0x73, 0x65, 0x71, 0x75, 0x65, 0x6e,
  0x74, 0x69, 0x61, 0x6c, 0x2f, 0x64, 0x65, 0x6e, 0x73, 0x65, 0x5f, 0x32,
  0x2f, 0x52, 0x65, 0x6c, 0x75, 0x3b, 0x73, 0x65, 0x71, 0x75, 0x65, 0x6e,
  0x74, 0x69, 0x61, 0x6c, 0x2f, 0x64, 0x65, 0x6e, 0x73, 0x65, 0x5f, 0x32,
  0x2f, 0x42, 0x69, 0x61, 0x73, 0x41, 0x64, 0x64, 0x00, 0x00, 0x00, 0x00,
  0x02, 0x00, 0x00, 0x00, 0xff, 0xff, 0xff, 0xff, 0x10, 0x00, 0x00, 0x00,
  0x14, 0xf3, 0xff, 0xff, 0x00, 0x00, 0x0e, 0x00, 0x14, 0x00, 0x00, 0x00,
  0x08, 0x00, 0x0c, 0x00, 0x07, 0x00, 0x10, 0x00, 0x0e, 0x00, 0x00, 0x00,
  0x00, 0x00, 0x00, 0x08, 0x1c, 0x00, 0x00, 0x00, 0x10, 0x00, 0x00, 0x00,
  0x04, 0x00, 0x00, 0x00, 0x32, 0xff, 0xff, 0xff, 0x00, 0x00, 0x00, 0x01,
  0x01, 0x00, 0x00, 0x00, 0x0a, 0x00, 0x00, 0x00, 0x03, 0x00, 0x00, 0x00,
  0x09, 0x00, 0x00, 0x00, 0x06, 0x00, 0x00, 0x00, 0x03, 0x00, 0x00, 0x00,
  0xf8, 0xf2, 0xff, 0xff, 0x14, 0x00, 0x00, 0x00, 0x0b, 0x00, 0x00, 0x00,
  0x18, 0x00, 0x00, 0x00, 0x74, 0x00, 0x00, 0x00, 0x64, 0x00, 0x00, 0x00,
  0x02, 0x00, 0x00, 0x00, 0x01, 0x00, 0x00, 0x00, 0x10, 0x00, 0x00, 0x00,
  0x4c, 0x00, 0x00, 0x00, 0x73, 0x65, 0x71, 0x75, 0x65, 0x6e, 0x74, 0x69,
  0x61, 0x6c, 0x2f, 0x64, 0x65, 0x6e, 0x73, 0x65, 0x5f, 0x31, 0x2f, 0x4d,
  0x61, 0x74, 0x4d, 0x75, 0x6c, 0x3b, 0x73, 0x65, 0x71, 0x75, 0x65, 0x6e,
  0x74, 0x69, 0x61, 0x6c, 0x2f, 0x64, 0x65, 0x6e, 0x73, 0x65, 0x5f, 0x31,
  0x2f, 0x52, 0x65, 0x6c, 0x75, 0x3b, 0x73, 0x65, 0x71, 0x75, 0x65, 0x6e,
  0x74, 0x69, 0x61, 0x6c, 0x2f, 0x64, 0x65, 0x6e, 0x73, 0x65, 0x5f, 0x31,
  0x2f, 0x42, 0x69, 0x61, 0x73, 0x41, 0x64, 0x64, 0x00, 0x00, 0x00, 0x00,
  0x02, 0x00, 0x00, 0x00, 0xff, 0xff, 0xff, 0xff, 0x10, 0x00, 0x00, 0x00,
  0xe0, 0xf3, 0xff, 0xff, 0x00, 0x00, 0x0e, 0x00, 0x16, 0x00, 0x00, 0x00,
  0x08, 0x00, 0x0c, 0x00, 0x07, 0x00, 0x10, 0x00, 0x0e, 0x00, 0x00, 0x00,
  0x00, 0x00, 0x00, 0x08, 0x24, 0x00, 0x00, 0x00, 0x18, 0x00, 0x00, 0x00,
  0x0c, 0x00, 0x00, 0x00, 0x00, 0x00, 0x06, 0x00, 0x08, 0x00, 0x07, 0x00,
  0x06, 0x00, 0x00, 0x00, 0x00, 0x00, 0x00, 0x01, 0x01, 0x00, 0x00, 0x00,
  0x09, 0x00, 0x00, 0x00, 0x03, 0x00, 0x00, 0x00, 0x00, 0x00, 0x00, 0x00,
  0x05, 0x00, 0x00, 0x00, 0x04, 0x00, 0x00, 0x00, 0x0c, 0x00, 0x10, 0x00,
  0x0b, 0x00, 0x00, 0x00, 0x0c, 0x00, 0x04, 0x00, 0x0c, 0x00, 0x00, 0x00,
  0x09, 0x00, 0x00, 0x00, 0x00, 0x00, 0x00, 0x09, 0x01, 0x00, 0x00, 0x00,
  0xe8, 0xf3, 0xff, 0xff, 0x14, 0x00, 0x00, 0x00, 0x0a, 0x00, 0x00, 0x00,
  0x18, 0x00, 0x00, 0x00, 0x6c, 0x00, 0x00, 0x00, 0x5c, 0x00, 0x00, 0x00,
  0x02, 0x00, 0x00, 0x00, 0x01, 0x00, 0x00, 0x00, 0x10, 0x00, 0x00, 0x00,
  0x46, 0x00, 0x00, 0x00, 0x73, 0x65, 0x71, 0x75, 0x65, 0x6e, 0x74, 0x69,
  0x61, 0x6c, 0x2f, 0x64, 0x65, 0x6e, 0x73, 0x65, 0x2f, 0x4d, 0x61, 0x74,
  0x4d, 0x75, 0x6c, 0x3b, 0x73, 0x65, 0x71, 0x75, 0x65, 0x6e, 0x74, 0x69,
  0x61, 0x6c, 0x2f, 0x64, 0x65, 0x6e, 0x73, 0x65, 0x2f, 0x52, 0x65, 0x6c,
  0x75, 0x3b, 0x73, 0x65, 0x71, 0x75, 0x65, 0x6e, 0x74, 0x69, 0x61, 0x6c,
  0x2f, 0x64, 0x65, 0x6e, 0x73, 0x65, 0x2f, 0x42, 0x69, 0x61, 0x73, 0x41,
  0x64, 0x64, 0x00, 0x00, 0x02, 0x00, 0x00, 0x00, 0xff, 0xff, 0xff, 0xff,
  0x10, 0x00, 0x00, 0x00, 0xf8, 0xf3, 0xff, 0xff, 0xc2, 0xf4, 0xff, 0xff,
  0x04, 0x00, 0x00, 0x00, 0x40, 0x00, 0x00, 0x00, 0x24, 0x10, 0x6a, 0xbf,
  0xec, 0x21, 0x03, 0xbf, 0xcb, 0x15, 0x84, 0xbe, 0xd3, 0x6f, 0x9c, 0xbe,
  0x90, 0xde, 0x80, 0x3e, 0x40, 0x33, 0xd5, 0xbc, 0x6c, 0x6d, 0xc2, 0x3f,
  0x59, 0x3c, 0xdc, 0xbe, 0x45, 0x7e, 0x73, 0xbe, 0x77, 0xc7, 0x4a, 0xbd,
  0x3c, 0x59, 0x08, 0x3e, 0xa1, 0x89, 0x3e, 0x3e, 0x8a, 0x7f, 0x8a, 0xbe,
  0x24, 0xe6, 0x09, 0xbf, 0x51, 0x68, 0x82, 0x3f, 0x5e, 0x9f, 0x17, 0x3e,
  0xf6, 0xf4, 0xff, 0xff, 0x10, 0x00, 0x00, 0x00, 0x09, 0x00, 0x00, 0x00,
  0x14, 0x00, 0x00, 0x00, 0x30, 0x00, 0x00, 0x00, 0x02, 0x00, 0x00, 0x00,
  0x01, 0x00, 0x00, 0x00, 0x10, 0x00, 0x00, 0x00, 0x19, 0x00, 0x00, 0x00,
  0x73, 0x65, 0x71, 0x75, 0x65, 0x6e, 0x74, 0x69, 0x61, 0x6c, 0x2f, 0x64,
  0x65, 0x6e, 0x73, 0x65, 0x5f, 0x33, 0x2f, 0x4d, 0x61, 0x74, 0x4d, 0x75,
  0x6c, 0x00, 0x00, 0x00, 0x88, 0xf4, 0xff, 0xff, 0x52, 0xf5, 0xff, 0xff,
  0x04, 0x00, 0x00, 0x00, 0x00, 0x04, 0x00, 0x00, 0xa8, 0x51, 0x43, 0xbf,
  0xbc, 0x35, 0xab, 0x3e, 0x69, 0x27, 0x6d, 0xbe, 0x19, 0x1c, 0x9d, 0x3e,
  0x5d, 0xaa, 0xcf, 0xbe, 0xd4, 0x15, 0x27, 0xbe, 0xbd, 0x2c, 0x10, 0x3f,
  0x5b, 0x31, 0x9a, 0x3e, 0x3d, 0x4e, 0xe6, 0xbe, 0xf4, 0xdd, 0xff, 0x3d,
  0xb1, 0x64, 0xeb, 0xbe, 0xda, 0xee, 0x72, 0xbc, 0xf8, 0x57, 0x10, 0x3e,
  0x4e, 0x2c, 0xa4, 0x3e, 0xd0, 0xd8, 0xea, 0x3c, 0x9b, 0xd6, 0xd9, 0x3e,
  0x58, 0xb3, 0x59, 0xbd, 0x30, 0x54, 0x06, 0xbe, 0xc3, 0x24, 0xd4, 0x3e,
  0x52, 0x55, 0xa9, 0xbe, 0x1c, 0x0e, 0x84, 0xbd, 0x30, 0x9d, 0x44, 0xbd,
  0x1c, 0x21, 0x69, 0xbe, 0x6d, 0x53, 0xda, 0x3e, 0x80, 0x59, 0x57, 0xbe,
  0x94, 0xd5, 0xbe, 0xbd, 0xcc, 0xd4, 0x98, 0xbe, 0x38, 0x55, 0xc9, 0xbe,
  0x4a, 0x2c, 0xc5, 0xbe, 0x81, 0xac, 0xda, 0xbe, 0xef, 0xb9, 0xce, 0xbe,
  0x59, 0x52, 0xb9, 0x3e, 0x1e, 0x1a, 0x23, 0xbe, 0x62, 0x58, 0x24, 0x3e,
  0xfd, 0x5e, 0x89, 0x3e, 0x49, 0x1f, 0x87, 0x3e, 0x42, 0xc3, 0x57, 0x3e,
  0x3e, 0x5e, 0xd1, 0xbe, 0x26, 0xe2, 0x2f, 0x3e, 0x85, 0xca, 0x5d, 0xbe,
  0x36, 0xe7, 0x59, 0xbe, 0x6d, 0x0a, 0x8d, 0xbe, 0x94, 0x99, 0xc5, 0xbd,
  0xc0, 0xc7, 0xf6, 0xbb, 0xc2, 0x89, 0x4d, 0x3e, 0x53, 0x13, 0x74, 0xbe,
  0x9a, 0x30, 0x00, 0xbe, 0x74, 0x0c, 0xde, 0x3d, 0x0e, 0x37, 0xc4, 0xbe,
  0x40, 0xe8, 0xaf, 0x3c, 0xbc, 0x51, 0xcd, 0x3d, 0x4c, 0xea, 0xef, 0x3d,
  0x4b, 0xfa, 0xb0, 0xbe, 0x47, 0xc3, 0x5f, 0xbe, 0x37, 0xa8, 0xb9, 0x3e,
  0x22, 0xc9, 0x78, 0x3e, 0x98, 0x1d, 0x12, 0xbd, 0xe0, 0x75, 0x54, 0xbc,
  0xb7, 0x10, 0x8f, 0x3e, 0x74, 0x39, 0xd1, 0xbd, 0x16, 0xb0, 0x1e, 0xbe,
  0x72, 0x3e, 0xc4, 0xbe, 0xee, 0x56, 0xa4, 0xbe, 0x04, 0x08, 0xbb, 0xbe,
  0xad, 0x00, 0xa1, 0x3d, 0xc0, 0x2a, 0x44, 0xbd, 0x50, 0x3e, 0xaa, 0x3c,
  0x68, 0x55, 0x78, 0x3d, 0x57, 0xee, 0x9f, 0x3e, 0xad, 0x5c, 0xf0, 0xbd,
  0xe8, 0xd9, 0x88, 0xbe, 0xe8, 0x42, 0x61, 0x3d, 0xe7, 0x5d, 0x9e, 0xbe,
  0xdd, 0x78, 0xd7, 0x3e, 0x42, 0x25, 0x06, 0x3e, 0xd7, 0xd0, 0x0b, 0x3e,
  0xf3, 0x66, 0x92, 0x3e, 0x06, 0xcc, 0x20, 0xbe, 0x46, 0x5f, 0xbf, 0x3e,
  0x80, 0x12, 0x89, 0x3c, 0x6e, 0x1a, 0x91, 0xbe, 0x5a, 0xaf, 0x76, 0x3e,
  0xd0, 0x47, 0xae, 0xbe, 0x9a, 0xbb, 0x57, 0xbe, 0x5a, 0xb3, 0x50, 0xbe,
  0x90, 0x67, 0x54, 0xbd, 0xeb, 0xc6, 0x9c, 0xbe, 0xa0, 0x65, 0x92, 0xbd,
  0xda, 0xa7, 0x05, 0xbe, 0xd0, 0x37, 0xd6, 0xbd, 0x20, 0x10, 0x4e, 0xbe,
  0x20, 0x9a, 0x03, 0x3c, 0x83, 0xe9, 0x8b, 0xbe, 0x60, 0x2e, 0x5f, 0xbe,
  0x54, 0x52, 0xc4, 0xbd, 0x7c, 0xc2, 0x12, 0xbe, 0xc5, 0x0c, 0xb1, 0xbe,
  0x38, 0x14, 0xee, 0xbe, 0x48, 0x1f, 0x1c, 0x3d, 0x94, 0x82, 0xeb, 0x3d,
  0xd4, 0xb3, 0x8b, 0xbe, 0x82, 0xc6, 0x78, 0xbe, 0x10, 0xe1, 0xde, 0xbe,
  0xbd, 0x76, 0x40, 0x3f, 0x6d, 0x32, 0x1b, 0x3f, 0x5d, 0x76, 0xa3, 0x3e,
  0xf3, 0xb9, 0xa3, 0x3e, 0x41, 0xb7, 0x77, 0xbe, 0x3d, 0x9b, 0x26, 0x3f,
  0xd8, 0x5d, 0xdb, 0xbe, 0xd0, 0xed, 0x7a, 0xbe, 0xa1, 0x42, 0x6e, 0xbe,
  0x26, 0x8b, 0x75, 0x3e, 0x92, 0x83, 0x23, 0x3d, 0x1d, 0x59, 0x65, 0xbe,
  0x26, 0x7d, 0x79, 0x3e, 0x08, 0x34, 0x67, 0x3d, 0x53, 0xb1, 0x8e, 0x3e,
  0xca, 0x6f, 0xf7, 0x3e, 0x13, 0x58, 0xa9, 0xbe, 0x72, 0x24, 0x39, 0x3e,
  0x6c, 0xf5, 0xeb, 0x3d, 0x55, 0xef, 0xe1, 0x3d, 0x96, 0x41, 0x4b, 0xbe,
  0xf4, 0x13, 0x91, 0xbd, 0xce, 0x62, 0x7b, 0xbf, 0x4d, 0x7d, 0x80, 0x3e,
  0x7c, 0x1a, 0x00, 0x3d, 0xb9, 0x88, 0xb8, 0x3e, 0x5b, 0x84, 0x69, 0xbe,
  0xe4, 0x36, 0xd0, 0xbd, 0xb4, 0x58, 0xe7, 0x3d, 0x41, 0xfb, 0x68, 0x3e,
  0xdc, 0xad, 0x42, 0x3e, 0x61, 0x12, 0x1a, 0xbe, 0xc8, 0xef, 0x69, 0xbe,
  0xa2, 0x65, 0xc6, 0xbd, 0x59, 0x0a, 0x86, 0xbe, 0xf2, 0x17, 0xaa, 0x3e,
  0x67, 0x40, 0x6c, 0x3e, 0x58, 0x83, 0xbc, 0xbe, 0x1f, 0x1c, 0x65, 0xbf,
  0x1a, 0x26, 0x61, 0x3e, 0xcd, 0x96, 0xa4, 0xbe, 0xfa, 0xa5, 0x82, 0x3e,
  0x75, 0xcb, 0x5e, 0xbe, 0x76, 0x8f, 0x3d, 0x3e, 0x48, 0xc1, 0x70, 0xbd,
  0x8f, 0x83, 0xd4, 0x3c, 0xbf, 0x6c, 0xfe, 0x3e, 0xf6, 0x8a, 0x58, 0xbd,
  0xca, 0xdb, 0xe9, 0xbe, 0xc2, 0x50, 0x92, 0x3e, 0x18, 0xb3, 0x07, 0x3d,
  0x14, 0xe1, 0x71, 0xbe, 0x39, 0xf6, 0x57, 0xbd, 0x37, 0x01, 0xdd, 0x3d,
  0x83, 0xc3, 0x38, 0xbf, 0x25, 0x25, 0x71, 0x3e, 0x53, 0xa5, 0x45, 0xbe,
  0xcf, 0xfc, 0x73, 0xbe, 0x64, 0x1d, 0xf2, 0x3d, 0xf4, 0x4b, 0xa2, 0x3d,
  0x70, 0x92, 0xe8, 0xbd, 0xc0, 0x61, 0x85, 0x3d, 0xe0, 0x1e, 0x28, 0xbd,
  0x94, 0x07, 0x8c, 0xbe, 0x5c, 0x64, 0xd6, 0xbd, 0xb0, 0xcf, 0x02, 0x3d,
  0x9d, 0x24, 0xbf, 0xbe, 0x42, 0x33, 0xcf, 0xbe, 0x4b, 0x62, 0x47, 0xbe,
  0xd3, 0x65, 0xb0, 0xbe, 0x00, 0x14, 0xad, 0x3c, 0x09, 0x4b, 0xc6, 0x3e,
  0xb1, 0x50, 0xbb, 0x3e, 0xd8, 0xf8, 0xc3, 0x3e, 0x53, 0x82, 0xfe, 0xbc,
  0x3e, 0x36, 0x7a, 0xbe, 0x5c, 0x59, 0xdb, 0x3d, 0x29, 0x6a, 0x29, 0xbe,
  0x40, 0x7a, 0xef, 0xbd, 0x12, 0x34, 0x41, 0x3e, 0xb0, 0xe6, 0xc8, 0xbd,
  0x3d, 0x8a, 0x9f, 0x3e, 0x5c, 0xb6, 0xac, 0xbe, 0x2d, 0x7f, 0x4b, 0x3e,
  0xd7, 0x28, 0x81, 0x3e, 0x1f, 0x8b, 0x53, 0xbe, 0xc3, 0x88, 0x3b, 0x3e,
  0xb2, 0xef, 0xed, 0x3d, 0xda, 0xe1, 0x39, 0xbf, 0x81, 0xc8, 0xb9, 0xbe,
  0x89, 0xec, 0x64, 0xbe, 0x34, 0x37, 0xaf, 0xbe, 0x7e, 0xf9, 0x37, 0x3e,
  0xd6, 0x91, 0x65, 0x3e, 0xf4, 0xf5, 0x91, 0x3d, 0xc6, 0x4b, 0xad, 0xbe,
  0x7e, 0x6a, 0x6e, 0xbe, 0x00, 0x9c, 0x45, 0x3c, 0xd0, 0xc5, 0x1c, 0xbe,
  0x1c, 0xda, 0xc1, 0x3d, 0x3c, 0xef, 0x8a, 0x3d, 0xba, 0x37, 0x5d, 0x3e,
  0x10, 0xf6, 0x62, 0xbd, 0xfc, 0xb0, 0xe1, 0xbd, 0x97, 0x57, 0xc2, 0x3e,
  0x69, 0x14, 0xa9, 0x3e, 0xbb, 0x84, 0x95, 0x3e, 0x60, 0x5a, 0x26, 0xbc,
  0xce, 0x39, 0x5a, 0x3e, 0x24, 0xf3, 0xa0, 0xbc, 0x99, 0x74, 0x90, 0xbe,
  0x53, 0x0e, 0x6d, 0xbe, 0x7f, 0xa9, 0x05, 0x3e, 0xc5, 0x08, 0x02, 0x3e,
  0x25, 0xa7, 0xcb, 0x3e, 0xe9, 0x59, 0xe2, 0xbe, 0x89, 0xa7, 0x26, 0x3e,
  0x65, 0x84, 0x19, 0x3d, 0xf2, 0x0e, 0x14, 0xbe, 0x8c, 0x84, 0x86, 0x3e,
  0x24, 0x0e, 0xe0, 0x3e, 0xa8, 0x7e, 0x2e, 0x3d, 0x9a, 0x00, 0x0f, 0x3f,
  0xb8, 0x3c, 0x07, 0xbe, 0x54, 0xc9, 0xba, 0x3d, 0x76, 0xee, 0xb3, 0xbe,
  0xe7, 0x99, 0xd7, 0x3e, 0xcb, 0xd7, 0x18, 0x3d, 0x0b, 0xac, 0x77, 0xbf,
  0xa7, 0x0f, 0x09, 0xbf, 0xf1, 0x89, 0xb3, 0x3e, 0x88, 0x00, 0x16, 0x3e,
  0x9d, 0x3a, 0x02, 0x3f, 0x6f, 0x63, 0x23, 0xbf, 0x82, 0x13, 0x07, 0x3f,
  0x00, 0xd9, 0x3c, 0xbe, 0x87, 0x31, 0x63, 0xbf, 0x1c, 0xbb, 0x4e, 0xbe,
  0xb3, 0x06, 0x90, 0xbe, 0x9c, 0xd7, 0x23, 0xbe, 0xf2, 0x94, 0x62, 0xbe,
  0x00, 0x8c, 0x49, 0x3c, 0xce, 0x37, 0xc3, 0x3d, 0x2e, 0xc4, 0x34, 0x3e,
  0x28, 0x3e, 0x94, 0xbd, 0x4c, 0x9c, 0x15, 0xbe, 0x4e, 0x80, 0x34, 0x3e,
  0x61, 0x3d, 0x9c, 0x3e, 0xad, 0x2e, 0xa1, 0xbd, 0x7e, 0x00, 0x80, 0xbe,
  0xc8, 0x3a, 0x75, 0xbd, 0xd8, 0x13, 0x34, 0x3d, 0x5d, 0x06, 0xb1, 0x3e,
  0x46, 0xf9, 0xff, 0xff, 0x10, 0x00, 0x00, 0x00, 0x08, 0x00, 0x00, 0x00,
  0x14, 0x00, 0x00, 0x00, 0x30, 0x00, 0x00, 0x00, 0x02, 0x00, 0x00, 0x00,
  0x10, 0x00, 0x00, 0x00, 0x10, 0x00, 0x00, 0x00, 0x19, 0x00, 0x00, 0x00,
  0x73, 0x65, 0x71, 0x75, 0x65, 0x6e, 0x74, 0x69, 0x61, 0x6c, 0x2f, 0x64,
  0x65, 0x6e, 0x73, 0x65, 0x5f, 0x32, 0x2f, 0x4d, 0x61, 0x74, 0x4d, 0x75,
  0x6c, 0x00, 0x00, 0x00, 0xd8, 0xf8, 0xff, 0xff, 0xa2, 0xf9, 0xff, 0xff,
  0x04, 0x00, 0x00, 0x00, 0x00, 0x04, 0x00, 0x00, 0x76, 0xe8, 0x08, 0x3e,
  0x00, 0x93, 0xc3, 0xbe, 0x35, 0x69, 0x5c, 0xbe, 0xa5, 0x8c, 0xaa, 0x3e,
  0x7a, 0x5a, 0x4a, 0x3e, 0xe8, 0x17, 0xac, 0xbd, 0x8e, 0x30, 0xe3, 0x3e,
  0x63, 0xc9, 0xa5, 0xbe, 0x45, 0x17, 0x6b, 0xbe, 0x78, 0x89, 0x91, 0x3d,
  0x70, 0xb2, 0x8e, 0xbe, 0xe9, 0x28, 0x87, 0x3e, 0x3c, 0x7f, 0xca, 0x3e,
  0xed, 0x81, 0x93, 0x3e, 0xb0, 0xd0, 0xa0, 0xbc, 0x9a, 0xc1, 0x27, 0xbe,
  0x00, 0xfb, 0x44, 0xbb, 0xab, 0xff, 0xb3, 0x3e, 0x20, 0xca, 0xd8, 0xbc,
  0x06, 0x17, 0x72, 0x3e, 0x1d, 0x7b, 0x9f, 0x3e, 0x1e, 0xfa, 0xd7, 0xbe,
  0x9c, 0x39, 0x01, 0xbe, 0x40, 0x2c, 0x1a, 0xbc, 0xb9, 0x14, 0xdb, 0xbe,
  0x7c, 0x64, 0x0e, 0xbf, 0x80, 0xaf, 0x28, 0xbd, 0xa0, 0xc4, 0x15, 0x3c,
  0x23, 0xc3, 0x57, 0x3e, 0x10, 0xc3, 0x2d, 0x3d, 0xe3, 0xf7, 0xb8, 0xbe,
  0xde, 0xc5, 0x2b, 0x3e, 0xa6, 0x1b, 0xb6, 0xbe, 0x8b, 0x94, 0x8b, 0x3e,
  0xe1, 0x50, 0x5f, 0xbe, 0x3e, 0x0b, 0x35, 0xbe, 0x54, 0x86, 0xb3, 0xbe,
  0x56, 0x9e, 0x0e, 0x3e, 0x9d, 0xeb, 0xa6, 0xbe, 0x27, 0x52, 0xc8, 0x3e,
  0x30, 0x6c, 0xf0, 0xbc, 0xdc, 0x64, 0xd1, 0xbd, 0xb2, 0x3a, 0x4b, 0x3e,
  0x08, 0x32, 0x74, 0x3d, 0x48, 0xee, 0x97, 0xbe, 0x6b, 0xec, 0xd8, 0xbe,
  0x07, 0x94, 0xc6, 0x3e, 0x12, 0x99, 0x3a, 0xbe, 0x89, 0xd9, 0xd7, 0xbe,
  0x88, 0xe9, 0x71, 0xbe, 0x86, 0xc5, 0x18, 0x3e, 0x20, 0xea, 0x90, 0xbc,
  0x26, 0xec, 0xb9, 0xbe, 0xc0, 0xee, 0xa5, 0x3c, 0x97, 0x98, 0xbc, 0xbe,
  0x7b, 0x3d, 0xb1, 0x3e, 0x2e, 0x7c, 0x76, 0xbe, 0x0a, 0xaa, 0x64, 0x3e,
  0xc4, 0xeb, 0xf4, 0x3d, 0x10, 0x38, 0x11, 0xbe, 0xb0, 0x92, 0x9a, 0xbe,
  0x74, 0x20, 0xd5, 0xbe, 0x27, 0xff, 0xd4, 0xbe, 0xe0, 0xfe, 0xd2, 0xbc,
  0xa5, 0x48, 0x9a, 0xbe, 0x5b, 0x39, 0xa0, 0x3e, 0x84, 0x7a, 0xb7, 0xbd,
  0xa0, 0x57, 0xca, 0xbd, 0x04, 0x63, 0x97, 0x3d, 0x78, 0x53, 0xa5, 0xbd,
  0x23, 0x32, 0xc8, 0x3e, 0x5d, 0xbf, 0x8b, 0x3e, 0xd9, 0xfa, 0x78, 0xbe,
  0x1d, 0xc8, 0x8c, 0xbd, 0xd7, 0x0a, 0x87, 0xbe, 0xc0, 0x22, 0xd4, 0x3b,
  0x80, 0x05, 0x7f, 0xbe, 0x0c, 0x2b, 0x9f, 0xbe, 0xce, 0x26, 0x51, 0x3e,
  0x86, 0x92, 0x3c, 0x3e, 0x40, 0xe9, 0x39, 0x3c, 0xd5, 0x4f, 0xb2, 0x3e,
  0xb9, 0xde, 0x9f, 0x3e, 0x5b, 0xac, 0xb0, 0x3e, 0x79, 0x31, 0xd2, 0x3e,
  0xde, 0x89, 0x90, 0xbe, 0xa7, 0xd2, 0xd8, 0xbe, 0xb2, 0x17, 0x49, 0x3e,
  0xf6, 0x38, 0x31, 0x3e, 0xa8, 0x04, 0xef, 0x3b, 0xd9, 0xa0, 0x88, 0x3e,
  0x7b, 0x4e, 0xc9, 0x3e, 0x5e, 0xa3, 0x9e, 0x3e, 0x8a, 0x0f, 0x6d, 0xbe,
  0x68, 0xc9, 0x6f, 0x3d, 0x91, 0xfc, 0x8e, 0x3e, 0x6a, 0x9f, 0x66, 0xbe,
  0xd6, 0x17, 0x3a, 0x3e, 0x16, 0xb5, 0x70, 0x3e, 0x1c, 0x3b, 0xd0, 0xbe,
  0xc0, 0xd3, 0x1b, 0x3c, 0x80, 0x3a, 0xda, 0x3b, 0x53, 0xe7, 0x7e, 0x3e,
  0x92, 0x1e, 0x0a, 0x3e, 0xa3, 0x20, 0xad, 0xbe, 0x71, 0x81, 0xe1, 0xbe,
  0xd4, 0xc8, 0xd9, 0x3d, 0xe4, 0x44, 0xa1, 0xbd, 0x4e, 0xae, 0x11, 0xbd,
  0x33, 0xdc, 0x8e, 0x3e, 0x03, 0xc3, 0x4e, 0xbe, 0xb3, 0x30, 0xb0, 0x3e,
  0x70, 0x90, 0x35, 0x3d, 0x9e, 0x19, 0x25, 0x3e, 0x1a, 0x83, 0x04, 0x3e,
  0xb8, 0x86, 0x58, 0x3d, 0xfa, 0x73, 0xcc, 0xbe, 0x5c, 0x87, 0xe9, 0xbd,
  0xb5, 0xb4, 0x0f, 0x3f, 0xd8, 0xb4, 0x83, 0xbe, 0x88, 0x8a, 0x5f, 0xbd,
  0xde, 0x47, 0xd3, 0x3e, 0xf4, 0xb5, 0xc1, 0xbe, 0xc1, 0xca, 0x8d, 0x3e,
  0x58, 0xa1, 0xb8, 0xbd, 0xa7, 0x1a, 0xd1, 0x3e, 0x50, 0x02, 0x14, 0xbe,
  0xa0, 0xec, 0xc2, 0xbc, 0x18, 0xef, 0x42, 0xbd, 0x1b, 0x0e, 0xa2, 0x3e,
  0x62, 0xa7, 0x27, 0xbe, 0x60, 0xb2, 0x25, 0xbc, 0xf8, 0x2b, 0xdf, 0xbd,
  0xdf, 0xf9, 0xb0, 0x3e, 0xab, 0x30, 0x0f, 0x3f, 0xb2, 0xec, 0x2d, 0x3e,
  0x0d, 0x42, 0xd5, 0x3e, 0x23, 0x78, 0xf6, 0x3e, 0x52, 0xad, 0x12, 0xbe,
  0x59, 0x94, 0xb0, 0xbe, 0x57, 0xad, 0x97, 0x3e, 0x76, 0xf5, 0x41, 0x3e,
  0xfa, 0x43, 0x51, 0x3e, 0x1e, 0x9d, 0x2e, 0xbe, 0xfd, 0xe7, 0x85, 0x3e,
  0x74, 0x8d, 0xdc, 0x3d, 0x85, 0xa9, 0x92, 0x3e, 0x13, 0x71, 0xb9, 0x3e,
  0x60, 0xf8, 0x30, 0xbd, 0x96, 0x70, 0xb8, 0xbe, 0x26, 0xa8, 0xb6, 0xbe,
  0x75, 0xe9, 0x89, 0x3e, 0x22, 0xcf, 0x1a, 0xbe, 0x96, 0x99, 0x6a, 0x3e,
  0x80, 0x48, 0xf9, 0x3b, 0x78, 0x46, 0x1b, 0x3d, 0x10, 0x11, 0x7b, 0xbd,
  0xc9, 0x08, 0xa1, 0x3e, 0x2e, 0x0d, 0x26, 0xbe, 0x74, 0x3f, 0xf6, 0x3d,
  0x56, 0x50, 0x98, 0xbe, 0x58, 0xd7, 0x79, 0x3d, 0xdf, 0xb0, 0xa1, 0x3e,
  0xb4, 0xd7, 0xd6, 0xbe, 0x20, 0xa2, 0x31, 0xbd, 0x94, 0x10, 0xae, 0xbe,
  0x94, 0x61, 0x86, 0xbe, 0xfd, 0xca, 0x94, 0x3e, 0x58, 0x91, 0x1a, 0x3d,
  0xa4, 0x1d, 0x2e, 0xbe, 0x36, 0xfd, 0x19, 0x3e, 0xe7, 0x05, 0x8f, 0x3e,
  0xa3, 0xba, 0x81, 0x3d, 0xec, 0x46, 0x97, 0xbe, 0x03, 0x9d, 0xa9, 0xbe,
  0x80, 0xfa, 0xed, 0xbd, 0xc7, 0x9e, 0xa5, 0x3e, 0xc0, 0x8a, 0xd9, 0xbe,
  0x76, 0xcc, 0xa8, 0xbe, 0x42, 0x96, 0x02, 0xbe, 0x1c, 0x71, 0xe0, 0x3d,
  0x9e, 0xfb, 0x0e, 0x3e, 0x9e, 0x7e, 0x9f, 0x3e, 0xc4, 0x6d, 0x85, 0x3d,
  0xd3, 0x0b, 0xa3, 0x3e, 0xdc, 0x01, 0x2b, 0xbf, 0xc3, 0x3c, 0x97, 0xbe,
  0x45, 0x96, 0xda, 0x3e, 0xa1, 0xaf, 0xa4, 0x3e, 0x33, 0x05, 0x77, 0xbe,
  0x08, 0xa1, 0x0e, 0xbd, 0xfc, 0xc0, 0x34, 0xbe, 0x70, 0x32, 0x43, 0x3d,
  0x84, 0xb8, 0xfe, 0xbd, 0x90, 0x2d, 0xa9, 0xbe, 0x4c, 0x4b, 0xed, 0xbd,
  0x94, 0x9c, 0xe3, 0x3d, 0x1b, 0x5f, 0xc6, 0x3e, 0x0c, 0x39, 0x2e, 0xbe,
  0x40, 0x9c, 0x08, 0xbc, 0x07, 0x24, 0xa2, 0xbe, 0x7a, 0xf8, 0xef, 0x3e,
  0xbc, 0x3e, 0xa5, 0xbd, 0x11, 0x59, 0xca, 0xbe, 0x78, 0x7e, 0xb1, 0x3e,
  0xc8, 0x84, 0x08, 0x3d, 0x9f, 0x29, 0x5e, 0xbe, 0x6f, 0x13, 0xd7, 0x3e,
  0xa7, 0xf8, 0xa7, 0x3e, 0x51, 0xe2, 0xd7, 0xbe, 0x3c, 0xf4, 0x87, 0xbe,
  0x5b, 0x7d, 0xa0, 0xbe, 0xeb, 0xb5, 0xc7, 0x3e, 0x1f, 0x4e, 0xb3, 0x3e,
  0xa7, 0x80, 0x6a, 0xbe, 0x76, 0x5c, 0x17, 0x3e, 0xe0, 0xe8, 0xca, 0x3c,
  0x1a, 0xfe, 0x9f, 0xbe, 0xb6, 0xca, 0x0f, 0x3e, 0x91, 0xee, 0x92, 0x3e,
  0xdf, 0x2c, 0x95, 0x3d, 0x80, 0x7e, 0x37, 0xbc, 0xbc, 0x9b, 0xb8, 0xbe,
  0x7c, 0x16, 0xaa, 0xbe, 0xaa, 0xd6, 0x03, 0x3e, 0x0a, 0x4f, 0x27, 0x3e,
  0xe0, 0x0d, 0xed, 0xbc, 0xea, 0x94, 0x21, 0x3e, 0x90, 0xfe, 0xa5, 0xbd,
  0xff, 0x1a, 0xd7, 0xbe, 0x52, 0x37, 0xbb, 0xbc, 0xd8, 0x05, 0xbe, 0xbd,
  0x9b, 0x11, 0x81, 0x3e, 0x99, 0xc2, 0xb4, 0x3e, 0x5c, 0x69, 0x40, 0xbe,
  0x1a, 0x1f, 0x4a, 0x3e, 0x74, 0x9b, 0xf6, 0xbd, 0x9c, 0xc8, 0xbd, 0x3d,
  0x53, 0xb8, 0xaf, 0x3e, 0xd6, 0xef, 0x3a, 0xbe, 0xcf, 0x61, 0xd5, 0xbe,
  0x50, 0x42, 0x41, 0xbd, 0xb2, 0x9d, 0x37, 0x3e, 0xbc, 0xa5, 0xb6, 0x3d,
  0xf4, 0xf2, 0xd8, 0xbe, 0xd6, 0x57, 0x55, 0x3e, 0x42, 0x32, 0x05, 0xbf,
  0x99, 0x14, 0xbd, 0x3e, 0x87, 0xd1, 0xa4, 0xbe, 0x67, 0xcd, 0xf0, 0xbe,
  0xee, 0xc9, 0x69, 0x3e, 0x29, 0xb3, 0x99, 0x3e, 0x13, 0x37, 0xb9, 0xbe,
  0x15, 0xe0, 0xbd, 0xbe, 0x4e, 0x1c, 0x5e, 0xbe, 0x58, 0x7b, 0xf5, 0xbd,
  0x96, 0xfd, 0xff, 0xff, 0x10, 0x00, 0x00, 0x00, 0x07, 0x00, 0x00, 0x00,
  0x14, 0x00, 0x00, 0x00, 0x30, 0x00, 0x00, 0x00, 0x02, 0x00, 0x00, 0x00,
  0x10, 0x00, 0x00, 0x00, 0x10, 0x00, 0x00, 0x00, 0x19, 0x00, 0x00, 0x00,
  0x73, 0x65, 0x71, 0x75, 0x65, 0x6e, 0x74, 0x69, 0x61, 0x6c, 0x2f, 0x64,
  0x65, 0x6e, 0x73, 0x65, 0x5f, 0x31, 0x2f, 0x4d, 0x61, 0x74, 0x4d, 0x75,
  0x6c, 0x00, 0x00, 0x00, 0x28, 0xfd, 0xff, 0xff, 0xf2, 0xfd, 0xff, 0xff,
  0x04, 0x00, 0x00, 0x00, 0x40, 0x00, 0x00, 0x00, 0x48, 0x43, 0x2d, 0xbe,
  0xdc, 0x07, 0x31, 0xbe, 0x28, 0x27, 0x38, 0xbe, 0x1b, 0xa2, 0x05, 0xbf,
  0x98, 0xa1, 0x7c, 0xbe, 0x49, 0x76, 0x0c, 0xbf, 0x81, 0x9f, 0xe3, 0x3e,
  0x93, 0x28, 0x8b, 0xbe, 0x54, 0x87, 0xfb, 0xbd, 0x52, 0xd6, 0x86, 0x3e,
  0x1a, 0x16, 0x0b, 0xbe, 0xf4, 0xed, 0xa3, 0xbe, 0x0e, 0x0e, 0x2a, 0x3f,
  0x2c, 0xf3, 0xc7, 0xbe, 0xde, 0x28, 0xf0, 0xbe, 0xa1, 0x56, 0xa2, 0xbe,
  0x26, 0xfe, 0xff, 0xff, 0x10, 0x00, 0x00, 0x00, 0x06, 0x00, 0x00, 0x00,
  0x14, 0x00, 0x00, 0x00, 0x2c, 0x00, 0x00, 0x00, 0x02, 0x00, 0x00, 0x00,
  0x10, 0x00, 0x00, 0x00, 0x01, 0x00, 0x00, 0x00, 0x17, 0x00, 0x00, 0x00,
  0x73, 0x65, 0x71, 0x75, 0x65, 0x6e, 0x74, 0x69, 0x61, 0x6c, 0x2f, 0x64,
  0x65, 0x6e, 0x73, 0x65, 0x2f, 0x4d, 0x61, 0x74, 0x4d, 0x75, 0x6c, 0x00,
  0xb4, 0xfd, 0xff, 0xff, 0x7e, 0xfe, 0xff, 0xff, 0x04, 0x00, 0x00, 0x00,
  0x40, 0x00, 0x00, 0x00, 0x00, 0x00, 0x00, 0x00, 0x00, 0x00, 0x00, 0x00,
  0x00, 0x00, 0x00, 0x00, 0x00, 0x00, 0x00, 0x00, 0x00, 0x00, 0x00, 0x00,
  0x00, 0x00, 0x00, 0x00, 0xaa, 0xca, 0x54, 0xbe, 0x00, 0x00, 0x00, 0x00,
  0x00, 0x00, 0x00, 0x00, 0x9f, 0xd1, 0xea, 0xbe, 0x00, 0x00, 0x00, 0x00,
  0x00, 0x00, 0x00, 0x00, 0x4c, 0xef, 0x51, 0x3d, 0x00, 0x00, 0x00, 0x00,
  0x00, 0x00, 0x00, 0x00, 0x00, 0x00, 0x00, 0x00, 0xb2, 0xfe, 0xff, 0xff,
  0x10, 0x00, 0x00, 0x00, 0x05, 0x00, 0x00, 0x00, 0x10, 0x00, 0x00, 0x00,
  0x1c, 0x00, 0x00, 0x00, 0x01, 0x00, 0x00, 0x00, 0x10, 0x00, 0x00, 0x00,
  0x0a, 0x00, 0x00, 0x00, 0x64, 0x65, 0x6e, 0x73, 0x65, 0x2f, 0x62, 0x69,
  0x61, 0x73, 0x00, 0x00, 0x30, 0xfe, 0xff, 0xff, 0xfa, 0xfe, 0xff, 0xff,
  0x04, 0x00, 0x00, 0x00, 0x40, 0x00, 0x00, 0x00, 0x1e, 0xae, 0x3d, 0x3e,
  0x55, 0x6b, 0xb9, 0x3e, 0x00, 0x00, 0x00, 0x00, 0x00, 0x00, 0x00, 0x00,
  0x20, 0x3a, 0x4f, 0xbb, 0x95, 0xb6, 0x69, 0x3e, 0x2a, 0xb2, 0xc4, 0x3e,
  0x77, 0xa4, 0x02, 0xbf, 0xa1, 0xe8, 0x09, 0xbf, 0x00, 0x00, 0x00, 0x00,
  0xc0, 0xbb, 0x42, 0x39, 0xf9, 0x57, 0xa4, 0x3e, 0xec, 0x73, 0x07, 0xbf,
  0x10, 0xf1, 0xb5, 0x3e, 0x00, 0x60, 0x84, 0x34, 0x9a, 0xf7, 0x7c, 0x3e,
  0x2e, 0xff, 0xff, 0xff, 0x10, 0x00, 0x00, 0x00, 0x04, 0x00, 0x00, 0x00,
  0x10, 0x00, 0x00, 0x00, 0x20, 0x00, 0x00, 0x00, 0x01, 0x00, 0x00, 0x00,
  0x10, 0x00, 0x00, 0x00, 0x0c, 0x00, 0x00, 0x00, 0x64, 0x65, 0x6e, 0x73,
  0x65, 0x5f, 0x31, 0x2f, 0x62, 0x69, 0x61, 0x73, 0x00, 0x00, 0x00, 0x00,
  0xb0, 0xfe, 0xff, 0xff, 0x7a, 0xff, 0xff, 0xff, 0x04, 0x00, 0x00, 0x00,
  0x40, 0x00, 0x00, 0x00, 0x4a, 0x16, 0x91, 0x3e, 0x00, 0x00, 0x00, 0x00,
  0x00, 0x00, 0x00, 0x00, 0x00, 0x00, 0x00, 0x00, 0xa1, 0x37, 0x4f, 0xbb,
  0x00, 0x00, 0x00, 0x00, 0x45, 0x96, 0x0c, 0xbf, 0xcd, 0x92, 0x05, 0xbc,
  0x69, 0xe8, 0x06, 0x3d, 0x2c, 0x90, 0x83, 0x3c, 0x00, 0x00, 0x00, 0x00,
  0xb0, 0x24, 0xaf, 0xbd, 0x00, 0x00, 0x00, 0x00, 0xac, 0x26, 0x56, 0x3d,
  0xb9, 0x1a, 0x86, 0x3e, 0x26, 0x27, 0x19, 0xbd, 0xae, 0xff, 0xff, 0xff,
  0x10, 0x00, 0x00, 0x00, 0x03, 0x00, 0x00, 0x00, 0x10, 0x00, 0x00, 0x00,
  0x24, 0x00, 0x00, 0x00, 0x01, 0x00, 0x00, 0x00, 0x10, 0x00, 0x00, 0x00,
  0x0c, 0x00, 0x00, 0x00, 0x64, 0x65, 0x6e, 0x73, 0x65, 0x5f, 0x32, 0x2f,
  0x62, 0x69, 0x61, 0x73, 0x00, 0x00, 0x00, 0x00, 0x04, 0x00, 0x06, 0x00,
  0x04, 0x00, 0x00, 0x00, 0x00, 0x00, 0x06, 0x00, 0x08, 0x00, 0x04, 0x00,
  0x06, 0x00, 0x00, 0x00, 0x04, 0x00, 0x00, 0x00, 0x04, 0x00, 0x00, 0x00,
  0xbf, 0xd0, 0xa7, 0xbd, 0x00, 0x00, 0x0e, 0x00, 0x14, 0x00, 0x04, 0x00,
  0x00, 0x00, 0x08, 0x00, 0x0c, 0x00, 0x10, 0x00, 0x0e, 0x00, 0x00, 0x00,
  0x10, 0x00, 0x00, 0x00, 0x02, 0x00, 0x00, 0x00, 0x10, 0x00, 0x00, 0x00,
  0x20, 0x00, 0x00, 0x00, 0x01, 0x00, 0x00, 0x00, 0x01, 0x00, 0x00, 0x00,
  0x0c, 0x00, 0x00, 0x00, 0x64, 0x65, 0x6e, 0x73, 0x65, 0x5f, 0x33, 0x2f,
  0x62, 0x69, 0x61, 0x73, 0x00, 0x00, 0x00, 0x00, 0x90, 0xff, 0xff, 0xff,
  0x14, 0x00, 0x18, 0x00, 0x04, 0x00, 0x00, 0x00, 0x08, 0x00, 0x0c, 0x00,
  0x10, 0x00, 0x00, 0x00, 0x00, 0x00, 0x14, 0x00, 0x14, 0x00, 0x00, 0x00,
  0x14, 0x00, 0x00, 0x00, 0x01, 0x00, 0x00, 0x00, 0x18, 0x00, 0x00, 0x00,
  0x44, 0x00, 0x00, 0x00, 0x34, 0x00, 0x00, 0x00, 0x02, 0x00, 0x00, 0x00,
  0x01, 0x00, 0x00, 0x00, 0x01, 0x00, 0x00, 0x00, 0x1d, 0x00, 0x00, 0x00,
  0x73, 0x65, 0x72, 0x76, 0x69, 0x6e, 0x67, 0x5f, 0x64, 0x65, 0x66, 0x61,
  0x75, 0x6c, 0x74, 0x5f, 0x64, 0x65, 0x6e, 0x73, 0x65, 0x5f, 0x69, 0x6e,
  0x70, 0x75, 0x74, 0x3a, 0x30, 0x00, 0x00, 0x00, 0x02, 0x00, 0x00, 0x00,
  0xff, 0xff, 0xff, 0xff, 0x01, 0x00, 0x00, 0x00, 0xfc, 0xff, 0xff, 0xff,
  0x04, 0x00, 0x04, 0x00, 0x04, 0x00, 0x00, 0x00
};

#endif //SINE_MODEL_H