#ifndef SINE_MODEL_H
#define SINE_MODEL_H

// We need to keep the data array aligned on some architectures.
#ifdef __has_attribute
#define HAVE_ATTRIBUTE(x) __has_attribute(x)
#else
#define HAVE_ATTRIBUTE(x) 0
#endif
#if HAVE_ATTRIBUTE(aligned) || (defined(__GNUC__) && !defined(__clang__))
#define DATA_ALIGN_ATTRIBUTE __attribute__((aligned(4)))
#else
#define DATA_ALIGN_ATTRIBUTE
#endif


unsigned int sine_model_len = 2892;
unsigned char sine_model[] = {
 0x1c, 0x00, 0x00, 0x00, 0x54, 0x46, 0x4c, 0x33, 0x14, 0x00, 0x20, 0x00,
  0x04, 0x00, 0x08, 0x00, 0x0c, 0x00, 0x10, 0x00, 0x14, 0x00, 0x00, 0x00,
  0x18, 0x00, 0x1c, 0x00, 0x14, 0x00, 0x00, 0x00, 0x03, 0x00, 0x00, 0x00,
  0x18, 0x00, 0x00, 0x00, 0x1c, 0x00, 0x00, 0x00, 0xa8, 0x00, 0x00, 0x00,
  0x1c, 0x00, 0x00, 0x00, 0x50, 0x00, 0x00, 0x00, 0x48, 0x00, 0x00, 0x00,
  0x01, 0x00, 0x00, 0x00, 0xc4, 0x02, 0x00, 0x00, 0x01, 0x00, 0x00, 0x00,
  0xb0, 0x00, 0x00, 0x00, 0x0c, 0x00, 0x00, 0x00, 0xf8, 0x0a, 0x00, 0x00,
  0xf4, 0x0a, 0x00, 0x00, 0x14, 0x0a, 0x00, 0x00, 0x5c, 0x09, 0x00, 0x00,
  0xb0, 0x08, 0x00, 0x00, 0x1c, 0x08, 0x00, 0x00, 0xc8, 0x03, 0x00, 0x00,
  0x34, 0x03, 0x00, 0x00, 0xd8, 0x0a, 0x00, 0x00, 0xd4, 0x0a, 0x00, 0x00,
  0xd0, 0x0a, 0x00, 0x00, 0x3c, 0x00, 0x00, 0x00, 0x00, 0x00, 0x00, 0x00,
  0x01, 0x00, 0x00, 0x00, 0x0c, 0x00, 0x00, 0x00, 0x08, 0x00, 0x0c, 0x00,
  0x04, 0x00, 0x08, 0x00, 0x08, 0x00, 0x00, 0x00, 0x08, 0x00, 0x00, 0x00,
  0x0b, 0x00, 0x00, 0x00, 0x13, 0x00, 0x00, 0x00, 0x6d, 0x69, 0x6e, 0x5f,
  0x72, 0x75, 0x6e, 0x74, 0x69, 0x6d, 0x65, 0x5f, 0x76, 0x65, 0x72, 0x73,
  0x69, 0x6f, 0x6e, 0x00, 0x52, 0xf6, 0xff, 0xff, 0x04, 0x00, 0x00, 0x00,
  0x10, 0x00, 0x00, 0x00, 0x31, 0x2e, 0x35, 0x2e, 0x30, 0x00, 0x00, 0x00,
  0x00, 0x00, 0x00, 0x00, 0x00, 0x00, 0x00, 0x00, 0x0f, 0x00, 0x00, 0x00,
  0x4d, 0x4c, 0x49, 0x52, 0x20, 0x43, 0x6f, 0x6e, 0x76, 0x65, 0x72, 0x74,
  0x65, 0x64, 0x2e, 0x00, 0x00, 0x00, 0x0e, 0x00, 0x18, 0x00, 0x04, 0x00,
  0x08, 0x00, 0x0c, 0x00, 0x10, 0x00, 0x14, 0x00, 0x0e, 0x00, 0x00, 0x00,
  0x14, 0x00, 0x00, 0x00, 0x3c, 0x00, 0x00, 0x00, 0x40, 0x00, 0x00, 0x00,
  0x44, 0x00, 0x00, 0x00, 0x50, 0x00, 0x00, 0x00, 0x0a, 0x00, 0x00, 0x00,
  0xe8, 0x09, 0x00, 0x00, 0x74, 0x09, 0x00, 0x00, 0xe8, 0x08, 0x00, 0x00,
  0x3c, 0x08, 0x00, 0x00, 0xa8, 0x07, 0x00, 0x00, 0x14, 0x07, 0x00, 0x00,
  0xc0, 0x02, 0x00, 0x00, 0xe4, 0x01, 0x00, 0x00, 0xec, 0x00, 0x00, 0x00,
  0x60, 0x00, 0x00, 0x00, 0x01, 0x00, 0x00, 0x00, 0x00, 0x00, 0x00, 0x00,
  0x01, 0x00, 0x00, 0x00, 0x09, 0x00, 0x00, 0x00, 0x03, 0x00, 0x00, 0x00,
  0x6c, 0x01, 0x00, 0x00, 0x98, 0x00, 0x00, 0x00, 0x10, 0x00, 0x00, 0x00,
  0x04, 0x00, 0x00, 0x00, 0x6d, 0x61, 0x69, 0x6e, 0x00, 0x00, 0x00, 0x00,
  0x8a, 0xff, 0xff, 0xff, 0x00, 0x00, 0x00, 0x08, 0x18, 0x00, 0x00, 0x00,
  0x0c, 0x00, 0x00, 0x00, 0x04, 0x00, 0x00, 0x00, 0x38, 0xf6, 0xff, 0xff,
  0x01, 0x00, 0x00, 0x00, 0x09, 0x00, 0x00, 0x00, 0x03, 0x00, 0x00, 0x00,
  0x08, 0x00, 0x00, 0x00, 0x06, 0x00, 0x00, 0x00, 0x01, 0x00, 0x00, 0x00,
  0xb0, 0xf6, 0xff, 0xff, 0x14, 0x00, 0x00, 0x00, 0x0a, 0x00, 0x00, 0x00,
  0x18, 0x00, 0x00, 0x00, 0x30, 0x00, 0x00, 0x00, 0x20, 0x00, 0x00, 0x00,
  0x02, 0x00, 0x00, 0x00, 0x01, 0x00, 0x00, 0x00, 0x01, 0x00, 0x00, 0x00,
  0x08, 0x00, 0x00, 0x00, 0x49, 0x64, 0x65, 0x6e, 0x74, 0x69, 0x74, 0x79,
  0x00, 0x00, 0x00, 0x00, 0x02, 0x00, 0x00, 0x00, 0xff, 0xff, 0xff, 0xff,
  0x01, 0x00, 0x00, 0x00, 0x7c, 0xf7, 0xff, 0xff, 0x00, 0x00, 0x0e, 0x00,
  0x14, 0x00, 0x00, 0x00, 0x08, 0x00, 0x0c, 0x00, 0x07, 0x00, 0x10, 0x00,
  0x0e, 0x00, 0x00, 0x00, 0x00, 0x00, 0x00, 0x08, 0x1c, 0x00, 0x00, 0x00,
  0x10, 0x00, 0x00, 0x00, 0x04, 0x00, 0x00, 0x00, 0x2e, 0xff, 0xff, 0xff,
  0x00, 0x00, 0x00, 0x01, 0x01, 0x00, 0x00, 0x00, 0x08, 0x00, 0x00, 0x00,
  0x03, 0x00, 0x00, 0x00, 0x07, 0x00, 0x00, 0x00, 0x05, 0x00, 0x00, 0x00,
  0x02, 0x00, 0x00, 0x00, 0x38, 0xf7, 0xff, 0xff, 0x14, 0x00, 0x00, 0x00,
  0x09, 0x00, 0x00, 0x00, 0x18, 0x00, 0x00, 0x00, 0x78, 0x00, 0x00, 0x00,
  0x68, 0x00, 0x00, 0x00, 0x02, 0x00, 0x00, 0x00, 0x01, 0x00, 0x00, 0x00,
  0x10, 0x00, 0x00, 0x00, 0x52, 0x00, 0x00, 0x00, 0x73, 0x65, 0x71, 0x75,
  0x65, 0x6e, 0x74, 0x69, 0x61, 0x6c, 0x5f, 0x32, 0x2f, 0x64, 0x65, 0x6e,
  0x73, 0x65, 0x5f, 0x37, 0x2f, 0x4d, 0x61, 0x74, 0x4d, 0x75, 0x6c, 0x3b,
  0x73, 0x65, 0x71, 0x75, 0x65, 0x6e, 0x74, 0x69, 0x61, 0x6c, 0x5f, 0x32,
  0x2f, 0x64, 0x65, 0x6e, 0x73, 0x65, 0x5f, 0x37, 0x2f, 0x52, 0x65, 0x6c,
  0x75, 0x3b, 0x73, 0x65, 0x71, 0x75, 0x65, 0x6e, 0x74, 0x69, 0x61, 0x6c,
  0x5f, 0x32, 0x2f, 0x64, 0x65, 0x6e, 0x73, 0x65, 0x5f, 0x37, 0x2f, 0x42,
  0x69, 0x61, 0x73, 0x41, 0x64, 0x64, 0x00, 0x00, 0x02, 0x00, 0x00, 0x00,
  0xff, 0xff, 0xff, 0xff, 0x10, 0x00, 0x00, 0x00, 0x4c, 0xf8, 0xff, 0xff,
  0x00, 0x00, 0x0e, 0x00, 0x16, 0x00, 0x00, 0x00, 0x08, 0x00, 0x0c, 0x00,
  0x07, 0x00, 0x10, 0x00, 0x0e, 0x00, 0x00, 0x00, 0x00, 0x00, 0x00, 0x08,
  0x24, 0x00, 0x00, 0x00, 0x18, 0x00, 0x00, 0x00, 0x0c, 0x00, 0x00, 0x00,
  0x00, 0x00, 0x06, 0x00, 0x08, 0x00, 0x07, 0x00, 0x06, 0x00, 0x00, 0x00,
  0x00, 0x00, 0x00, 0x01, 0x01, 0x00, 0x00, 0x00, 0x07, 0x00, 0x00, 0x00,
  0x03, 0x00, 0x00, 0x00, 0x00, 0x00, 0x00, 0x00, 0x04, 0x00, 0x00, 0x00,
  0x03, 0x00, 0x00, 0x00, 0x0c, 0x00, 0x10, 0x00, 0x0b, 0x00, 0x00, 0x00,
  0x0c, 0x00, 0x04, 0x00, 0x0c, 0x00, 0x00, 0x00, 0x09, 0x00, 0x00, 0x00,
  0x00, 0x00, 0x00, 0x09, 0x01, 0x00, 0x00, 0x00, 0x2c, 0xf8, 0xff, 0xff,
  0x14, 0x00, 0x00, 0x00, 0x08, 0x00, 0x00, 0x00, 0x18, 0x00, 0x00, 0x00,
  0x78, 0x00, 0x00, 0x00, 0x68, 0x00, 0x00, 0x00, 0x02, 0x00, 0x00, 0x00,
  0x01, 0x00, 0x00, 0x00, 0x10, 0x00, 0x00, 0x00, 0x52, 0x00, 0x00, 0x00,
  0x73, 0x65, 0x71, 0x75, 0x65, 0x6e, 0x74, 0x69, 0x61, 0x6c, 0x5f, 0x32,
  0x2f, 0x64, 0x65, 0x6e, 0x73, 0x65, 0x5f, 0x36, 0x2f, 0x4d, 0x61, 0x74,
  0x4d, 0x75, 0x6c, 0x3b, 0x73, 0x65, 0x71, 0x75, 0x65, 0x6e, 0x74, 0x69,
  0x61, 0x6c, 0x5f, 0x32, 0x2f, 0x64, 0x65, 0x6e, 0x73, 0x65, 0x5f, 0x36,
  0x2f, 0x52, 0x65, 0x6c, 0x75, 0x3b, 0x73, 0x65, 0x71, 0x75, 0x65, 0x6e,
  0x74, 0x69, 0x61, 0x6c, 0x5f, 0x32, 0x2f, 0x64, 0x65, 0x6e, 0x73, 0x65,
  0x5f, 0x36, 0x2f, 0x42, 0x69, 0x61, 0x73, 0x41, 0x64, 0x64, 0x00, 0x00,
  0x02, 0x00, 0x00, 0x00, 0xff, 0xff, 0xff, 0xff, 0x10, 0x00, 0x00, 0x00,
  0x58, 0xf8, 0xff, 0xff, 0x3a, 0xf9, 0xff, 0xff, 0x04, 0x00, 0x00, 0x00,
  0x40, 0x00, 0x00, 0x00, 0x66, 0xe6, 0xff, 0xbe, 0x12, 0x91, 0x8d, 0x3f,
  0x0f, 0x27, 0x93, 0x3f, 0x5c, 0x16, 0xc0, 0x3d, 0x07, 0x94, 0xf5, 0x3e,
  0xc8, 0xea, 0x11, 0xbf, 0xdf, 0x0a, 0x4e, 0xbf, 0xfe, 0xbe, 0xec, 0x3e,
  0x8b, 0xd1, 0x8d, 0xbf, 0xe8, 0x33, 0x37, 0x3f, 0x6e, 0x10, 0x0b, 0x3f,
  0x7e, 0x91, 0xf5, 0x3d, 0x1e, 0x3c, 0xaa, 0x3e, 0x8e, 0x0a, 0xe7, 0xbd,
  0x23, 0xb1, 0xbe, 0xbe, 0x96, 0x29, 0xd4, 0xbe, 0x6e, 0xf9, 0xff, 0xff,
  0x10, 0x00, 0x00, 0x00, 0x07, 0x00, 0x00, 0x00, 0x14, 0x00, 0x00, 0x00,
  0x30, 0x00, 0x00, 0x00, 0x02, 0x00, 0x00, 0x00, 0x01, 0x00, 0x00, 0x00,
  0x10, 0x00, 0x00, 0x00, 0x1b, 0x00, 0x00, 0x00, 0x73, 0x65, 0x71, 0x75,
  0x65, 0x6e, 0x74, 0x69, 0x61, 0x6c, 0x5f, 0x32, 0x2f, 0x64, 0x65, 0x6e,
  0x73, 0x65, 0x5f, 0x38, 0x2f, 0x4d, 0x61, 0x74, 0x4d, 0x75, 0x6c, 0x00,
  0xe8, 0xf8, 0xff, 0xff, 0xca, 0xf9, 0xff, 0xff, 0x04, 0x00, 0x00, 0x00,
  0x00, 0x04, 0x00, 0x00, 0x9f, 0x32, 0x87, 0x3e, 0xec, 0x29, 0x84, 0xbe,
  0x60, 0x79, 0xe6, 0x3e, 0x9a, 0x0f, 0x57, 0xbf, 0x55, 0x77, 0xdc, 0x3e,
  0x0c, 0x21, 0x0a, 0x3e, 0xbd, 0x14, 0xd1, 0xbe, 0x4e, 0x7c, 0x4c, 0x3e,
  0x3c, 0xfe, 0xc2, 0x3e, 0xed, 0xbc, 0x0b, 0x3e, 0x9f, 0x93, 0x96, 0x3e,
  0x44, 0x9d, 0xca, 0xbe, 0xdb, 0xfd, 0x8c, 0xbe, 0xf8, 0xc2, 0xbd, 0xbb,
  0x30, 0xd6, 0x1a, 0x3d, 0x89, 0x9d, 0x5b, 0xbe, 0x00, 0x5a, 0x79, 0xbe,
  0xea, 0xd8, 0x86, 0xbe, 0x67, 0x75, 0x82, 0x3e, 0x73, 0x4b, 0xaf, 0xbf,
  0xcb, 0x38, 0x5f, 0xbe, 0xfe, 0xf0, 0x85, 0xbf, 0xf3, 0xb0, 0x86, 0x3e,
  0xe7, 0xaa, 0xde, 0xbe, 0x63, 0xbb, 0xac, 0x3d, 0x73, 0xeb, 0x91, 0xbe,
  0x0a, 0xea, 0x8c, 0x3e, 0xae, 0xd2, 0xdb, 0xbe, 0x0c, 0x9c, 0x97, 0xbe,
  0x25, 0x21, 0x20, 0x3f, 0x56, 0x0e, 0x5b, 0x3e, 0xff, 0x0f, 0x13, 0x3e,
  0x3a, 0xb7, 0xb9, 0xbe, 0x69, 0xfa, 0x7d, 0xbe, 0xd5, 0xa0, 0x99, 0x3e,
  0x8f, 0x33, 0x4b, 0xbf, 0xf4, 0xc9, 0x12, 0xbe, 0xfd, 0x59, 0x26, 0xbf,
  0xa0, 0x68, 0xd9, 0xbe, 0x02, 0x97, 0xd3, 0xbe, 0x7a, 0x4d, 0x59, 0xbe,
  0xfa, 0x85, 0x59, 0x3e, 0xec, 0xa3, 0x1d, 0x3c, 0x0a, 0xa0, 0x42, 0x3e,
  0xff, 0x2b, 0x1c, 0x3e, 0x74, 0x50, 0x18, 0x3f, 0x40, 0x58, 0x8b, 0xbc,
  0xbb, 0x4d, 0x30, 0x3f, 0x00, 0x4a, 0x08, 0xbd, 0xac, 0x69, 0xe2, 0xbd,
  0xb4, 0x59, 0xc8, 0xbe, 0xc4, 0xda, 0xb2, 0x3d, 0xb4, 0xdc, 0xe0, 0xbd,
  0xbb, 0x24, 0xc9, 0x3e, 0xa0, 0xc9, 0x58, 0x3d, 0x16, 0x71, 0x14, 0x3e,
  0xab, 0x21, 0xca, 0xbe, 0xca, 0xd0, 0xd9, 0xbe, 0x3e, 0xef, 0x06, 0xbd,
  0xb0, 0xd2, 0xdc, 0xbe, 0x7a, 0x53, 0x11, 0x3d, 0x94, 0x89, 0x48, 0x3e,
  0x48, 0x7d, 0x6e, 0x3d, 0x98, 0xf5, 0x0b, 0x3e, 0x5f, 0x34, 0xd8, 0xbe,
  0x02, 0xf3, 0x8d, 0xbe, 0x42, 0xe2, 0x09, 0x3e, 0x00, 0x5e, 0x90, 0xba,
  0x22, 0xdf, 0x4e, 0x3e, 0x34, 0xaa, 0x50, 0xbe, 0x5c, 0x53, 0x9a, 0x3d,
  0x02, 0x4e, 0x3b, 0x3e, 0x63, 0x47, 0xdb, 0xbe, 0x9e, 0xa4, 0x69, 0x3c,
  0xbe, 0x7c, 0xd1, 0xbe, 0x64, 0xfa, 0xa1, 0xbe, 0x1f, 0x6c, 0xb1, 0xbd,
  0x7f, 0x8d, 0x9d, 0x3e, 0x7d, 0x64, 0xa6, 0xbe, 0x7f, 0x78, 0xec, 0xbe,
  0x31, 0x02, 0x93, 0x3e, 0x18, 0x3e, 0x71, 0xbe, 0xa4, 0x4b, 0x8c, 0xbd,
  0x21, 0x33, 0xc4, 0xbe, 0x1a, 0x59, 0x86, 0xbe, 0xd0, 0x94, 0x1f, 0xbd,
  0xe1, 0x02, 0x4c, 0xbe, 0x6c, 0xbb, 0xa7, 0xbd, 0xd5, 0x17, 0x08, 0x3e,
  0x7b, 0xc0, 0xef, 0x3e, 0x3d, 0x89, 0xd7, 0x3e, 0xb8, 0x89, 0x9a, 0xbd,
  0xa8, 0x09, 0x8b, 0xbe, 0xd8, 0x69, 0x33, 0x3e, 0x76, 0xbf, 0xc8, 0xbe,
  0x52, 0x0e, 0xb0, 0x3e, 0x80, 0x3b, 0x05, 0xbb, 0xae, 0x89, 0x2d, 0xbe,
  0xd0, 0x45, 0xba, 0xbe, 0x66, 0x79, 0xac, 0xbe, 0xf0, 0xf4, 0xbc, 0x3c,
  0x96, 0xc9, 0x38, 0x3e, 0xeb, 0x27, 0x87, 0x3e, 0x3c, 0xe8, 0x15, 0xbe,
  0xb7, 0x61, 0x43, 0xbf, 0x39, 0x74, 0xb8, 0xbe, 0xd2, 0x9b, 0xe9, 0xbe,
  0xc9, 0x44, 0x48, 0xbe, 0x10, 0x96, 0x1a, 0xbf, 0xd0, 0x20, 0xac, 0x3e,
  0x38, 0x5d, 0x45, 0x3d, 0xdd, 0x80, 0xd4, 0x3e, 0x7a, 0x41, 0x70, 0xbe,
  0xb4, 0x9f, 0x2a, 0xbe, 0x0f, 0xb9, 0x79, 0xbe, 0x5b, 0x5d, 0x10, 0xbf,
  0x96, 0x0f, 0x6e, 0x3e, 0x37, 0x19, 0xf2, 0xbe, 0x9e, 0x3c, 0x81, 0xbe,
  0x06, 0xf2, 0xa0, 0x3c, 0x8a, 0x45, 0xc0, 0xbc, 0x29, 0x27, 0xc5, 0x3e,
  0xea, 0x3a, 0x30, 0x3e, 0xea, 0xa2, 0x90, 0xbe, 0x4c, 0xaf, 0xf7, 0x3d,
  0x80, 0x5e, 0xea, 0xbd, 0xe1, 0x04, 0x9a, 0x3e, 0x52, 0xa2, 0x18, 0x3e,
  0xfe, 0xef, 0x45, 0x3e, 0x97, 0xe2, 0x03, 0xbf, 0xa1, 0x67, 0xbd, 0xbe,
  0x33, 0xb1, 0xd0, 0xbe, 0x66, 0x05, 0xa8, 0xbe, 0xc9, 0x51, 0x40, 0xbe,
  0xe4, 0xff, 0x32, 0xbe, 0x73, 0x3d, 0x1d, 0x3f, 0x97, 0x31, 0xda, 0xbe,
  0x9a, 0x79, 0x14, 0x3f, 0x2f, 0x2a, 0x0e, 0xbf, 0x52, 0x2f, 0x01, 0x3e,
  0x4a, 0xf8, 0xec, 0x3d, 0x91, 0x90, 0x08, 0x3f, 0xe6, 0x14, 0x0f, 0x3e,
  0xae, 0xde, 0xa0, 0x3e, 0xfa, 0x58, 0x7f, 0xbe, 0x0c, 0xe1, 0xa5, 0x3e,
  0xd8, 0x32, 0x99, 0xbe, 0x18, 0x43, 0xb3, 0xbf, 0xaa, 0x31, 0x78, 0x3e,
  0x2e, 0xad, 0x54, 0xbf, 0x4c, 0x49, 0x4c, 0xbe, 0x72, 0x77, 0x3a, 0xbd,
  0xa9, 0x6c, 0x86, 0xbe, 0xba, 0x0d, 0x3e, 0x3d, 0x75, 0x13, 0x0f, 0xbe,
  0x1c, 0x61, 0xca, 0xbd, 0xe3, 0x57, 0xe8, 0x3e, 0xd7, 0xf7, 0x59, 0x3e,
  0x27, 0x6c, 0x95, 0x3e, 0xa8, 0x09, 0x74, 0x3e, 0xcb, 0x7d, 0xc0, 0x3e,
  0x61, 0xca, 0x9e, 0xbe, 0x09, 0x10, 0xb1, 0x3e, 0x8b, 0xdb, 0x0c, 0x3f,
  0xb8, 0x56, 0x49, 0xbe, 0x4e, 0x60, 0xd9, 0x3c, 0x54, 0x2a, 0xb8, 0xbe,
  0xf5, 0x4f, 0xcc, 0x3e, 0x79, 0x59, 0xac, 0x3e, 0x76, 0xa4, 0xa0, 0x3d,
  0x1f, 0x7e, 0xb2, 0x3e, 0x44, 0x6e, 0x3f, 0xbe, 0x23, 0xe4, 0xcc, 0x3e,
  0xdd, 0x2c, 0x23, 0xbd, 0x1e, 0xbd, 0xa3, 0xbe, 0xf0, 0x3e, 0x44, 0xbd,
  0x92, 0x50, 0x71, 0x3e, 0xb6, 0x70, 0x8c, 0x3e, 0xe1, 0xc9, 0xd8, 0xbe,
  0xde, 0x6a, 0x57, 0x3e, 0x11, 0x4c, 0xb6, 0x3e, 0x92, 0x6a, 0x58, 0x3e,
  0x93, 0xfb, 0xc6, 0x3e, 0x45, 0xa4, 0x72, 0xbe, 0xf7, 0xd2, 0x5b, 0xbd,
  0x9e, 0xc4, 0xaf, 0x3e, 0x43, 0x5b, 0x58, 0xbe, 0x21, 0x9b, 0xb0, 0x3e,
  0xb2, 0xdc, 0xbf, 0xbe, 0x59, 0x6b, 0xb2, 0x3c, 0x41, 0xca, 0xc7, 0xbe,
  0xc0, 0xff, 0x79, 0x3e, 0x3b, 0xfb, 0xb6, 0x3e, 0x91, 0xe0, 0x8f, 0xbd,
  0x2b, 0x0c, 0x82, 0x3e, 0xd6, 0x9a, 0x11, 0x3f, 0xb0, 0x79, 0xc2, 0xbe,
  0x47, 0x06, 0xd8, 0xbd, 0x71, 0xaa, 0x81, 0x3e, 0x54, 0x7c, 0xa2, 0xbe,
  0x16, 0x6e, 0x78, 0xbd, 0x58, 0x67, 0x67, 0xbc, 0xf4, 0x03, 0x57, 0x3e,
  0xcc, 0xd1, 0xbe, 0x3d, 0x44, 0x5e, 0xb5, 0x3e, 0x5a, 0x9f, 0xb0, 0xbd,
  0x34, 0x09, 0x8a, 0xbe, 0xfc, 0x32, 0x2f, 0x3e, 0x40, 0x78, 0xe0, 0xbd,
  0x87, 0x09, 0x34, 0xbe, 0xb0, 0x4d, 0x4d, 0x3e, 0xba, 0xa8, 0xf5, 0xbe,
  0xa4, 0x34, 0xb2, 0xbd, 0x7d, 0x3d, 0x9f, 0x3d, 0xcf, 0xeb, 0xbf, 0x3e,
  0xe8, 0xae, 0xa7, 0x3d, 0x4e, 0xbd, 0xdd, 0x3e, 0xea, 0x97, 0xc3, 0xbe,
  0xe5, 0x6d, 0x83, 0x3e, 0x5e, 0x8d, 0x0b, 0x3e, 0x0e, 0x75, 0xe4, 0x3d,
  0x3c, 0x43, 0x88, 0xbe, 0xdc, 0xdd, 0xec, 0xbd, 0xdc, 0x3c, 0x8a, 0xb9,
  0xdf, 0xee, 0x95, 0x3e, 0x7d, 0x1b, 0xcc, 0x3e, 0xfd, 0x3d, 0xb0, 0x3e,
  0x15, 0x84, 0x23, 0xbf, 0xac, 0x44, 0x42, 0xbe, 0xb9, 0x50, 0x48, 0xbe,
  0xa6, 0x79, 0x12, 0x3e, 0x48, 0xeb, 0xe0, 0xbe, 0xa8, 0x36, 0x0c, 0x3d,
  0x83, 0xf2, 0x65, 0xbe, 0xf0, 0x67, 0x86, 0xbe, 0x3d, 0x19, 0xab, 0x3e,
  0xf4, 0xcd, 0xe1, 0x3e, 0x8b, 0x3a, 0x94, 0xbd, 0x72, 0xa9, 0x36, 0xbe,
  0x2e, 0xc8, 0x08, 0x3f, 0x9f, 0x62, 0xdd, 0x3e, 0xaa, 0x29, 0x53, 0x3e,
  0x55, 0x08, 0xe1, 0x3d, 0x15, 0xd1, 0x25, 0xbf, 0x00, 0x91, 0x01, 0x3d,
  0x68, 0xea, 0x83, 0xbc, 0x75, 0x85, 0xb7, 0x3e, 0xb2, 0x66, 0xbb, 0xbd,
  0xc3, 0xe2, 0x30, 0x3e, 0x22, 0x9f, 0x6b, 0x3c, 0x48, 0x02, 0x59, 0x3e,
  0xaa, 0x35, 0x03, 0xbe, 0x5d, 0x3f, 0x99, 0x3b, 0x17, 0x0b, 0x8b, 0x3e,
  0x70, 0x6e, 0x8a, 0xbe, 0x7a, 0xce, 0x09, 0x3e, 0xbe, 0xfd, 0xff, 0xff,
  0x10, 0x00, 0x00, 0x00, 0x06, 0x00, 0x00, 0x00, 0x14, 0x00, 0x00, 0x00,
  0x30, 0x00, 0x00, 0x00, 0x02, 0x00, 0x00, 0x00, 0x10, 0x00, 0x00, 0x00,
  0x10, 0x00, 0x00, 0x00, 0x1b, 0x00, 0x00, 0x00, 0x73, 0x65, 0x71, 0x75,
  0x65, 0x6e, 0x74, 0x69, 0x61, 0x6c, 0x5f, 0x32, 0x2f, 0x64, 0x65, 0x6e,
  0x73, 0x65, 0x5f, 0x37, 0x2f, 0x4d, 0x61, 0x74, 0x4d, 0x75, 0x6c, 0x00,
  0x38, 0xfd, 0xff, 0xff, 0x1a, 0xfe, 0xff, 0xff, 0x04, 0x00, 0x00, 0x00,
  0x40, 0x00, 0x00, 0x00, 0x96, 0x73, 0xbd, 0xbe, 0x77, 0xaa, 0xcf, 0x3e,
  0x86, 0x0d, 0x24, 0x3e, 0x47, 0x8e, 0x4b, 0x3e, 0xf0, 0xab, 0x42, 0xbe,
  0x30, 0x6f, 0xee, 0x3d, 0xa8, 0x31, 0xb3, 0xbd, 0x95, 0xd8, 0xaa, 0x3e,
  0xc9, 0x38, 0x07, 0x3f, 0x1b, 0x28, 0x91, 0x3d, 0x62, 0x05, 0x08, 0x3f,
  0xd3, 0x40, 0xaf, 0xbe, 0x88, 0x1e, 0xa6, 0x3e, 0xdc, 0xea, 0x97, 0x3d,
  0x20, 0x1a, 0xca, 0xbd, 0x2f, 0x0d, 0x48, 0x3d, 0x4e, 0xfe, 0xff, 0xff,
  0x10, 0x00, 0x00, 0x00, 0x05, 0x00, 0x00, 0x00, 0x14, 0x00, 0x00, 0x00,
  0x30, 0x00, 0x00, 0x00, 0x02, 0x00, 0x00, 0x00, 0x10, 0x00, 0x00, 0x00,
  0x01, 0x00, 0x00, 0x00, 0x1b, 0x00, 0x00, 0x00, 0x73, 0x65, 0x71, 0x75,
  0x65, 0x6e, 0x74, 0x69, 0x61, 0x6c, 0x5f, 0x32, 0x2f, 0x64, 0x65, 0x6e,
  0x73, 0x65, 0x5f, 0x36, 0x2f, 0x4d, 0x61, 0x74, 0x4d, 0x75, 0x6c, 0x00,
  0xc8, 0xfd, 0xff, 0xff, 0xaa, 0xfe, 0xff, 0xff, 0x04, 0x00, 0x00, 0x00,
  0x40, 0x00, 0x00, 0x00, 0x00, 0x00, 0x00, 0x00, 0xdf, 0xef, 0x69, 0xbe,
  0x1d, 0xb5, 0xa5, 0x3d, 0x2a, 0xa0, 0x0a, 0xbf, 0x00, 0x00, 0x00, 0x00,
  0x33, 0x28, 0x69, 0xbe, 0x00, 0x00, 0x00, 0x00, 0xa4, 0x59, 0xca, 0xbe,
  0x4e, 0xd8, 0x8e, 0xbd, 0xd5, 0x1c, 0x01, 0x3e, 0x94, 0x5d, 0xb0, 0x3d,
  0x00, 0x00, 0x00, 0x00, 0x84, 0x5e, 0xa5, 0xbd, 0x7c, 0x41, 0xe1, 0x3e,
  0x00, 0x00, 0x00, 0x00, 0x73, 0x89, 0x98, 0x3e, 0xde, 0xfe, 0xff, 0xff,
  0x10, 0x00, 0x00, 0x00, 0x04, 0x00, 0x00, 0x00, 0x10, 0x00, 0x00, 0x00,
  0x48, 0x00, 0x00, 0x00, 0x01, 0x00, 0x00, 0x00, 0x10, 0x00, 0x00, 0x00,
  0x34, 0x00, 0x00, 0x00, 0x73, 0x65, 0x71, 0x75, 0x65, 0x6e, 0x74, 0x69,
  0x61, 0x6c, 0x5f, 0x32, 0x2f, 0x64, 0x65, 0x6e, 0x73, 0x65, 0x5f, 0x36,
  0x2f, 0x42, 0x69, 0x61, 0x73, 0x41, 0x64, 0x64, 0x2f, 0x52, 0x65, 0x61,
  0x64, 0x56, 0x61, 0x72, 0x69, 0x61, 0x62, 0x6c, 0x65, 0x4f, 0x70, 0x2f,
  0x72, 0x65, 0x73, 0x6f, 0x75, 0x72, 0x63, 0x65, 0x00, 0x00, 0x00, 0x00,
  0x70, 0xfe, 0xff, 0xff, 0x52, 0xff, 0xff, 0xff, 0x04, 0x00, 0x00, 0x00,
  0x40, 0x00, 0x00, 0x00, 0x32, 0xec, 0xb3, 0x3d, 0x43, 0xa1, 0xca, 0x3e,
  0xe9, 0xfa, 0xcb, 0x3e, 0x17, 0xe1, 0x5e, 0xbd, 0x53, 0x2f, 0x24, 0xbd,
  0x39, 0xe9, 0x23, 0x3d, 0xe5, 0xeb, 0x96, 0x3e, 0xc4, 0x43, 0x0c, 0xbd,
  0xfe, 0x0f, 0x0c, 0x3f, 0x89, 0x22, 0x82, 0x3e, 0xd6, 0xb3, 0x83, 0xbe,
  0x23, 0x9f, 0x97, 0xbd, 0x1a, 0x72, 0x92, 0xbe, 0x07, 0x9c, 0xad, 0x3d,
  0x2e, 0x5f, 0x0c, 0x3e, 0x50, 0xe3, 0x42, 0x3d, 0x86, 0xff, 0xff, 0xff,
  0x10, 0x00, 0x00, 0x00, 0x03, 0x00, 0x00, 0x00, 0x10, 0x00, 0x00, 0x00,
  0x4c, 0x00, 0x00, 0x00, 0x01, 0x00, 0x00, 0x00, 0x10, 0x00, 0x00, 0x00,
  0x34, 0x00, 0x00, 0x00, 0x73, 0x65, 0x71, 0x75, 0x65, 0x6e, 0x74, 0x69,
  0x61, 0x6c, 0x5f, 0x32, 0x2f, 0x64, 0x65, 0x6e, 0x73, 0x65, 0x5f, 0x37,
  0x2f, 0x42, 0x69, 0x61, 0x73, 0x41, 0x64, 0x64, 0x2f, 0x52, 0x65, 0x61,
  0x64, 0x56, 0x61, 0x72, 0x69, 0x61, 0x62, 0x6c, 0x65, 0x4f, 0x70, 0x2f,
  0x72, 0x65, 0x73, 0x6f, 0x75, 0x72, 0x63, 0x65, 0x00, 0x00, 0x00, 0x00,
  0x04, 0x00, 0x06, 0x00, 0x04, 0x00, 0x00, 0x00, 0x00, 0x00, 0x06, 0x00,
  0x08, 0x00, 0x04, 0x00, 0x06, 0x00, 0x00, 0x00, 0x04, 0x00, 0x00, 0x00,
  0x04, 0x00, 0x00, 0x00, 0xaf, 0xc1, 0xac, 0xbe, 0x00, 0x00, 0x0e, 0x00,
  0x14, 0x00, 0x04, 0x00, 0x00, 0x00, 0x08, 0x00, 0x0c, 0x00, 0x10, 0x00,
  0x0e, 0x00, 0x00, 0x00, 0x10, 0x00, 0x00, 0x00, 0x02, 0x00, 0x00, 0x00,
  0x10, 0x00, 0x00, 0x00, 0x48, 0x00, 0x00, 0x00, 0x01, 0x00, 0x00, 0x00,
  0x01, 0x00, 0x00, 0x00, 0x34, 0x00, 0x00, 0x00, 0x73, 0x65, 0x71, 0x75,
  0x65, 0x6e, 0x74, 0x69, 0x61, 0x6c, 0x5f, 0x32, 0x2f, 0x64, 0x65, 0x6e,
  0x73, 0x65, 0x5f, 0x38, 0x2f, 0x42, 0x69, 0x61, 0x73, 0x41, 0x64, 0x64,
  0x2f, 0x52, 0x65, 0x61, 0x64, 0x56, 0x61, 0x72, 0x69, 0x61, 0x62, 0x6c,
  0x65, 0x4f, 0x70, 0x2f, 0x72, 0x65, 0x73, 0x6f, 0x75, 0x72, 0x63, 0x65,
  0x00, 0x00, 0x00, 0x00, 0xa0, 0xff, 0xff, 0xff, 0x14, 0x00, 0x18, 0x00,
  0x04, 0x00, 0x00, 0x00, 0x08, 0x00, 0x0c, 0x00, 0x10, 0x00, 0x00, 0x00,
  0x00, 0x00, 0x14, 0x00, 0x14, 0x00, 0x00, 0x00, 0x14, 0x00, 0x00, 0x00,
  0x01, 0x00, 0x00, 0x00, 0x18, 0x00, 0x00, 0x00, 0x34, 0x00, 0x00, 0x00,
  0x24, 0x00, 0x00, 0x00, 0x02, 0x00, 0x00, 0x00, 0x01, 0x00, 0x00, 0x00,
  0x01, 0x00, 0x00, 0x00, 0x0d, 0x00, 0x00, 0x00, 0x64, 0x65, 0x6e, 0x73,
  0x65, 0x5f, 0x36, 0x5f, 0x69, 0x6e, 0x70, 0x75, 0x74, 0x00, 0x00, 0x00,
  0x02, 0x00, 0x00, 0x00, 0xff, 0xff, 0xff, 0xff, 0x01, 0x00, 0x00, 0x00,
  0xfc, 0xff, 0xff, 0xff, 0x04, 0x00, 0x04, 0x00, 0x04, 0x00, 0x00, 0x00
 
};

const unsigned char sine_model1[] DATA_ALIGN_ATTRIBUTE = {
    0x18, 0x00, 0x00, 0x00, 0x54, 0x46, 0x4c, 0x33, 0x00, 0x00, 0x0e, 0x00,
    0x18, 0x00, 0x04, 0x00, 0x08, 0x00, 0x0c, 0x00, 0x10, 0x00, 0x14, 0x00,
    0x0e, 0x00, 0x00, 0x00, 0x03, 0x00, 0x00, 0x00, 0x10, 0x0a, 0x00, 0x00,
    0xb8, 0x05, 0x00, 0x00, 0xa0, 0x05, 0x00, 0x00, 0x04, 0x00, 0x00, 0x00,
    0x0b, 0x00, 0x00, 0x00, 0x90, 0x05, 0x00, 0x00, 0x7c, 0x05, 0x00, 0x00,
    0x24, 0x05, 0x00, 0x00, 0xd4, 0x04, 0x00, 0x00, 0xc4, 0x00, 0x00, 0x00,
    0x74, 0x00, 0x00, 0x00, 0x24, 0x00, 0x00, 0x00, 0x1c, 0x00, 0x00, 0x00,
    0x14, 0x00, 0x00, 0x00, 0x0c, 0x00, 0x00, 0x00, 0x04, 0x00, 0x00, 0x00,
    0x54, 0xf6, 0xff, 0xff, 0x58, 0xf6, 0xff, 0xff, 0x5c, 0xf6, 0xff, 0xff,
    0x60, 0xf6, 0xff, 0xff, 0xc2, 0xfa, 0xff, 0xff, 0x04, 0x00, 0x00, 0x00,
    0x40, 0x00, 0x00, 0x00, 0x7c, 0x19, 0xa7, 0x3e, 0x99, 0x81, 0xb9, 0x3e,
    0x56, 0x8b, 0x9f, 0x3e, 0x88, 0xd8, 0x12, 0xbf, 0x74, 0x10, 0x56, 0x3e,
    0xfe, 0xc6, 0xdf, 0xbe, 0xf2, 0x10, 0x5a, 0xbe, 0xf0, 0xe2, 0x0a, 0xbe,
    0x10, 0x5a, 0x98, 0xbe, 0xb9, 0x36, 0xce, 0x3d, 0x8f, 0x7f, 0x87, 0x3e,
    0x2c, 0xb1, 0xfd, 0xbd, 0xe6, 0xa6, 0x8a, 0xbe, 0xa5, 0x3e, 0xda, 0x3e,
    0x50, 0x34, 0xed, 0xbd, 0x90, 0x91, 0x69, 0xbe, 0x0e, 0xfb, 0xff, 0xff,
    0x04, 0x00, 0x00, 0x00, 0x40, 0x00, 0x00, 0x00, 0x67, 0x41, 0x48, 0xbf,
    0x24, 0xcd, 0xa0, 0xbe, 0xb7, 0x92, 0x0c, 0xbf, 0x00, 0x00, 0x00, 0x00,
    0x98, 0xfe, 0x3c, 0x3f, 0x00, 0x00, 0x00, 0x00, 0x00, 0x00, 0x00, 0x00,
    0x00, 0x00, 0x00, 0x00, 0x00, 0x00, 0x00, 0x00, 0x4a, 0x17, 0x9a, 0xbe,
    0x41, 0xcb, 0xb6, 0xbe, 0x00, 0x00, 0x00, 0x00, 0x00, 0x00, 0x00, 0x00,
    0x13, 0xd6, 0x1e, 0x3e, 0x00, 0x00, 0x00, 0x00, 0x00, 0x00, 0x00, 0x00,
    0x5a, 0xfb, 0xff, 0xff, 0x04, 0x00, 0x00, 0x00, 0x00, 0x04, 0x00, 0x00,
    0x4b, 0x98, 0xdd, 0xbd, 0x40, 0x6b, 0xcb, 0xbe, 0x36, 0x0c, 0xd4, 0x3c,
    0xbd, 0x44, 0xb5, 0x3e, 0x95, 0x70, 0xe3, 0x3e, 0xe7, 0xac, 0x86, 0x3e,
    0x00, 0xc4, 0x4e, 0x3d, 0x7e, 0xa6, 0x1d, 0x3e, 0xbd, 0x87, 0xbb, 0x3e,
    0xb4, 0xb8, 0x09, 0xbf, 0xa1, 0x1f, 0xf8, 0xbe, 0x8d, 0x90, 0xdd, 0x3e,
    0xde, 0xfa, 0x6f, 0xbe, 0xb2, 0x75, 0xe4, 0x3d, 0x6e, 0xfe, 0x36, 0x3e,
    0x20, 0x18, 0xc2, 0xbe, 0x39, 0xc7, 0xfb, 0xbe, 0xfe, 0xa4, 0x30, 0xbe,
    0xf7, 0x91, 0xde, 0xbe, 0xde, 0xab, 0x24, 0x3e, 0xfb, 0xbb, 0xce, 0x3e,
    0xeb, 0x23, 0x80, 0xbe, 0x7b, 0x58, 0x73, 0xbe, 0x9a, 0x2e, 0x03, 0x3e,
    0x10, 0x42, 0xa9, 0xbc, 0x10, 0x12, 0x64, 0xbd, 0xe3, 0x8d, 0x0c, 0x3d,
    0x9e, 0x48, 0x97, 0xbe, 0x34, 0x51, 0xd4, 0xbe, 0x02, 0x3b, 0x0d, 0x3e,
    0x62, 0x67, 0x89, 0xbe, 0x74, 0xdf, 0xa2, 0x3d, 0xf3, 0x25, 0xb3, 0xbe,
    0xef, 0x34, 0x7b, 0x3d, 0x61, 0x70, 0xe3, 0x3d, 0xba, 0x76, 0xc0, 0xbe,
    0x7d, 0xe9, 0xa7, 0x3e, 0xc3, 0xab, 0xd0, 0xbe, 0xcf, 0x7c, 0xdb, 0xbe,
    0x70, 0x27, 0x9a, 0xbe, 0x98, 0xf5, 0x3c, 0xbd, 0xff, 0x4b, 0x4b, 0x3e,
    0x7e, 0xa0, 0xf8, 0xbd, 0xd4, 0x6e, 0x86, 0x3d, 0x00, 0x4a, 0x07, 0x3a,
    0x4c, 0x24, 0x61, 0xbe, 0x54, 0x68, 0xf7, 0xbd, 0x02, 0x3f, 0x77, 0xbe,
    0x23, 0x79, 0xb3, 0x3e, 0x1c, 0x83, 0xad, 0xbd, 0xc8, 0x92, 0x8d, 0x3e,
    0xa8, 0xf3, 0x15, 0xbd, 0xe6, 0x4d, 0x6c, 0x3d, 0xac, 0xe7, 0x98, 0xbe,
    0x81, 0xec, 0xbd, 0x3e, 0xe2, 0x55, 0x73, 0x3e, 0xc1, 0x77, 0xc7, 0x3e,
    0x6e, 0x1b, 0x5e, 0x3d, 0x27, 0x78, 0x02, 0x3f, 0xd4, 0x21, 0x90, 0x3d,
    0x52, 0xdc, 0x1f, 0x3e, 0xbf, 0xda, 0x88, 0x3e, 0x80, 0x79, 0xe3, 0xbd,
    0x40, 0x6f, 0x10, 0xbe, 0x20, 0x43, 0x2e, 0xbd, 0xf0, 0x76, 0xc5, 0xbd,
    0xcc, 0xa0, 0x04, 0xbe, 0xf0, 0x69, 0xd7, 0xbe, 0xb1, 0xfe, 0x64, 0xbe,
    0x20, 0x41, 0x84, 0xbe, 0xb2, 0xc3, 0x26, 0xbe, 0xd8, 0xf4, 0x09, 0xbe,
    0x64, 0x44, 0xd1, 0x3d, 0xd5, 0xe1, 0xc8, 0xbe, 0x35, 0xbc, 0x3f, 0xbe,
    0xc0, 0x94, 0x82, 0x3d, 0xdc, 0x2b, 0xb1, 0xbd, 0x02, 0xdb, 0xbf, 0xbe,
    0xa5, 0x7f, 0x8a, 0x3e, 0x21, 0xb4, 0xa2, 0x3e, 0xcd, 0x86, 0x56, 0xbf,
    0x9c, 0x3b, 0x76, 0xbc, 0x85, 0x6d, 0x60, 0xbf, 0x86, 0x00, 0x3c, 0xbe,
    0xc1, 0x23, 0x7e, 0x3e, 0x96, 0xcd, 0x3f, 0x3e, 0x86, 0x91, 0x2d, 0x3e,
    0x55, 0xef, 0x87, 0x3e, 0x7e, 0x97, 0x03, 0xbe, 0x2a, 0xcd, 0x01, 0x3e,
    0x32, 0xc9, 0x8e, 0xbe, 0x72, 0x77, 0x3b, 0xbe, 0xe0, 0xa1, 0xbc, 0xbe,
    0x8d, 0xb7, 0xa7, 0x3e, 0x1c, 0x05, 0x95, 0xbe, 0xf7, 0x1f, 0xbb, 0x3e,
    0xc9, 0x3e, 0xd6, 0x3e, 0x80, 0x42, 0xe9, 0xbd, 0x27, 0x0c, 0xd2, 0xbe,
    0x5c, 0x32, 0x34, 0xbe, 0x14, 0xcb, 0xca, 0xbd, 0xdd, 0x3a, 0x67, 0xbe,
    0x1c, 0xbb, 0x8d, 0xbe, 0x91, 0xac, 0x5c, 0xbe, 0x52, 0x40, 0x6f, 0xbe,
    0xd7, 0x71, 0x94, 0x3e, 0x18, 0x71, 0x09, 0xbe, 0x9b, 0x29, 0xd9, 0xbe,
    0x7d, 0x66, 0xd2, 0xbe, 0x98, 0xd6, 0xb2, 0xbe, 0x00, 0xc9, 0x84, 0x3a,
    0xbc, 0xda, 0xc2, 0xbd, 0x1d, 0xc2, 0x1b, 0xbf, 0xd4, 0xdd, 0x92, 0x3e,
    0x07, 0x87, 0x6c, 0xbe, 0x40, 0xc2, 0x3b, 0xbe, 0xbd, 0xe2, 0x9c, 0x3e,
    0x0a, 0xb5, 0xa0, 0xbe, 0xe2, 0xd5, 0x9c, 0xbe, 0x3e, 0xbb, 0x7c, 0x3e,
    0x17, 0xb4, 0xcf, 0x3e, 0xd5, 0x8e, 0xc8, 0xbe, 0x7c, 0xf9, 0x5c, 0x3e,
    0x80, 0xfc, 0x0d, 0x3d, 0xc5, 0xd5, 0x8b, 0x3e, 0xf5, 0x17, 0xa2, 0x3e,
    0xc7, 0x60, 0x89, 0xbe, 0xec, 0x95, 0x87, 0x3d, 0x7a, 0xc2, 0x5d, 0xbf,
    0x77, 0x94, 0x98, 0x3e, 0x77, 0x39, 0x07, 0xbc, 0x42, 0x29, 0x00, 0x3e,
    0xaf, 0xd0, 0xa9, 0x3e, 0x31, 0x23, 0xc4, 0xbe, 0x95, 0x36, 0x5b, 0xbe,
    0xc7, 0xdc, 0x83, 0xbe, 0x1e, 0x6b, 0x47, 0x3e, 0x5b, 0x24, 0x99, 0x3e,
    0x99, 0x27, 0x54, 0x3e, 0xc8, 0x20, 0xdd, 0xbd, 0x5a, 0x86, 0x2f, 0x3e,
    0x80, 0xf0, 0x69, 0xbe, 0x44, 0xfc, 0x84, 0xbd, 0x82, 0xa0, 0x2a, 0xbe,
    0x87, 0xe6, 0x2a, 0x3e, 0xd8, 0x34, 0xae, 0x3d, 0x50, 0xbd, 0xb5, 0x3e,
    0xc4, 0x8c, 0x88, 0xbe, 0xe3, 0xbc, 0xa5, 0x3e, 0xa9, 0xda, 0x9e, 0x3e,
    0x3e, 0xb8, 0x23, 0xbe, 0x80, 0x90, 0x15, 0x3d, 0x97, 0x3f, 0xc3, 0x3e,
    0xca, 0x5c, 0x9d, 0x3e, 0x21, 0xe8, 0xe1, 0x3e, 0xc0, 0x49, 0x01, 0xbc,
    0x00, 0x0b, 0x88, 0xbd, 0x3f, 0xf7, 0xca, 0x3c, 0xfb, 0x5a, 0xb1, 0x3e,
    0x60, 0xd2, 0x0d, 0x3c, 0xce, 0x23, 0x78, 0xbf, 0x8f, 0x4f, 0xb9, 0xbe,
    0x69, 0x6a, 0x34, 0xbf, 0x4b, 0x5e, 0xa9, 0x3e, 0x64, 0x8c, 0xd9, 0x3e,
    0x52, 0x77, 0x36, 0x3e, 0xeb, 0xaf, 0xbe, 0x3e, 0x40, 0xbe, 0x36, 0x3c,
    0x08, 0x65, 0x3b, 0xbd, 0x55, 0xe0, 0x66, 0xbd, 0xd2, 0xe8, 0x9b, 0xbe,
    0x86, 0xe3, 0x09, 0xbe, 0x93, 0x3d, 0xdd, 0x3e, 0x0f, 0x66, 0x18, 0x3f,
    0x18, 0x05, 0x33, 0xbd, 0xde, 0x15, 0xd7, 0xbe, 0xaa, 0xcf, 0x49, 0xbe,
    0xa2, 0xa5, 0x64, 0x3e, 0xe6, 0x9c, 0x42, 0xbe, 0x54, 0x42, 0xcc, 0x3d,
    0xa0, 0xbd, 0x9d, 0xbe, 0xc2, 0x69, 0x48, 0x3e, 0x5b, 0x8b, 0xa2, 0xbe,
    0xc0, 0x13, 0x87, 0x3d, 0x36, 0xfd, 0x69, 0x3e, 0x05, 0x86, 0x40, 0xbe,
    0x1e, 0x7a, 0xce, 0xbe, 0x46, 0x13, 0xa7, 0xbe, 0x68, 0x52, 0x86, 0xbe,
    0x04, 0x9e, 0x86, 0xbd, 0x8c, 0x54, 0xc1, 0x3d, 0xe0, 0x3b, 0xad, 0x3c,
    0x42, 0x67, 0x85, 0xbd, 0xea, 0x97, 0x42, 0x3e, 0x6e, 0x13, 0x3b, 0xbf,
    0x56, 0x5b, 0x16, 0x3e, 0xaa, 0xab, 0xdf, 0x3e, 0xc8, 0x41, 0x36, 0x3d,
    0x24, 0x2d, 0x47, 0xbe, 0x77, 0xa5, 0xae, 0x3e, 0xc0, 0xc2, 0x5b, 0x3c,
    0xac, 0xac, 0x4e, 0x3e, 0x99, 0xec, 0x13, 0xbe, 0xf2, 0xab, 0x73, 0x3e,
    0xaa, 0xa1, 0x48, 0xbe, 0xe8, 0xd3, 0x01, 0xbe, 0x60, 0xb7, 0xc7, 0xbd,
    0x64, 0x72, 0xd3, 0x3d, 0x83, 0xd3, 0x99, 0x3e, 0x0c, 0x76, 0x34, 0xbe,
    0x42, 0xda, 0x0d, 0x3e, 0xfb, 0x47, 0x9a, 0x3e, 0x8b, 0xdc, 0x92, 0xbe,
    0x56, 0x7f, 0x6b, 0x3e, 0x04, 0xd4, 0x88, 0xbd, 0x11, 0x9e, 0x80, 0x3e,
    0x3c, 0x89, 0xff, 0x3d, 0xb3, 0x3e, 0x88, 0x3e, 0xf7, 0xf0, 0x88, 0x3e,
    0x28, 0xfb, 0xc9, 0xbe, 0x53, 0x3e, 0xcf, 0x3e, 0xac, 0x75, 0xdc, 0xbe,
    0xdd, 0xca, 0xd7, 0x3e, 0x01, 0x58, 0xa7, 0x3e, 0x29, 0xb8, 0x13, 0xbf,
    0x76, 0x81, 0x12, 0xbc, 0x28, 0x8b, 0x16, 0xbf, 0x0e, 0xec, 0x0e, 0x3e,
    0x40, 0x0a, 0xdb, 0xbd, 0x98, 0xec, 0xbf, 0xbd, 0x32, 0x55, 0x0c, 0xbe,
    0xfb, 0xf9, 0xc9, 0x3e, 0x83, 0x4a, 0x6d, 0xbe, 0x76, 0x59, 0xe2, 0xbe,
    0x54, 0x7d, 0x9f, 0xbb, 0x9d, 0xe8, 0x95, 0x3e, 0x5c, 0xd3, 0xd0, 0x3d,
    0x19, 0x8a, 0xb0, 0x3e, 0xde, 0x6f, 0x2e, 0xbe, 0xd0, 0x16, 0x83, 0x3d,
    0x9c, 0x7d, 0x11, 0xbf, 0x2b, 0xcc, 0x25, 0x3c, 0x2a, 0xa5, 0x27, 0xbe,
    0x22, 0x14, 0xc7, 0xbe, 0x5e, 0x7a, 0xac, 0x3e, 0x4e, 0x41, 0x94, 0xbe,
    0x5a, 0x68, 0x7b, 0x3e, 0x86, 0xfd, 0x4e, 0x3e, 0xa2, 0x56, 0x6a, 0xbe,
    0xca, 0xfe, 0x81, 0xbe, 0x43, 0xc3, 0xb1, 0xbd, 0xc5, 0xb8, 0xa7, 0x3e,
    0x55, 0x23, 0xcd, 0x3e, 0xaf, 0x2e, 0x76, 0x3e, 0x69, 0xa8, 0x90, 0xbe,
    0x0d, 0xba, 0xb9, 0x3e, 0x66, 0xff, 0xff, 0xff, 0x04, 0x00, 0x00, 0x00,
    0x40, 0x00, 0x00, 0x00, 0x53, 0xd6, 0xe2, 0x3d, 0x66, 0xb6, 0xcc, 0x3e,
    0x03, 0xe7, 0xf6, 0x3e, 0xe0, 0x28, 0x10, 0xbf, 0x00, 0x00, 0x00, 0x00,
    0x3e, 0x3d, 0xb0, 0x3e, 0x00, 0x00, 0x00, 0x00, 0x62, 0xf0, 0x77, 0x3e,
    0xa6, 0x9d, 0xa4, 0x3e, 0x3a, 0x4b, 0xf3, 0xbe, 0x71, 0x9e, 0xa7, 0x3e,
    0x00, 0x00, 0x00, 0x00, 0x34, 0x39, 0xa2, 0x3e, 0x00, 0x00, 0x00, 0x00,
    0xcc, 0x9c, 0x4a, 0x3e, 0xab, 0x40, 0xa3, 0x3e, 0xb2, 0xff, 0xff, 0xff,
    0x04, 0x00, 0x00, 0x00, 0x40, 0x00, 0x00, 0x00, 0xb3, 0x71, 0x67, 0x3f,
    0x9a, 0x7a, 0x95, 0xbf, 0xe1, 0x48, 0xe8, 0xbe, 0x8a, 0x72, 0x96, 0x3e,
    0x00, 0xd2, 0xd3, 0xbb, 0x1a, 0xc5, 0xd7, 0x3f, 0xac, 0x7e, 0xc8, 0xbe,
    0x90, 0xa7, 0x95, 0xbe, 0x3b, 0xd7, 0xdc, 0xbe, 0x41, 0xa8, 0x16, 0x3f,
    0x50, 0x5b, 0xcb, 0x3f, 0x52, 0xb9, 0xed, 0xbe, 0x2e, 0xa7, 0xc6, 0xbe,
    0xaf, 0x0f, 0x14, 0xbf, 0xb3, 0xda, 0x59, 0x3f, 0x02, 0xec, 0xd7, 0xbe,
    0x00, 0x00, 0x06, 0x00, 0x08, 0x00, 0x04, 0x00, 0x06, 0x00, 0x00, 0x00,
    0x04, 0x00, 0x00, 0x00, 0x04, 0x00, 0x00, 0x00, 0x66, 0x11, 0x1f, 0xbf,
    0xb8, 0xfb, 0xff, 0xff, 0x0f, 0x00, 0x00, 0x00, 0x54, 0x4f, 0x43, 0x4f,
    0x20, 0x43, 0x6f, 0x6e, 0x76, 0x65, 0x72, 0x74, 0x65, 0x64, 0x2e, 0x00,
    0x01, 0x00, 0x00, 0x00, 0x10, 0x00, 0x00, 0x00, 0x0c, 0x00, 0x14, 0x00,
    0x04, 0x00, 0x08, 0x00, 0x0c, 0x00, 0x10, 0x00, 0x0c, 0x00, 0x00, 0x00,
    0xf0, 0x00, 0x00, 0x00, 0xe4, 0x00, 0x00, 0x00, 0xd8, 0x00, 0x00, 0x00,
    0x04, 0x00, 0x00, 0x00, 0x03, 0x00, 0x00, 0x00, 0x90, 0x00, 0x00, 0x00,
    0x48, 0x00, 0x00, 0x00, 0x04, 0x00, 0x00, 0x00, 0xce, 0xff, 0xff, 0xff,
    0x00, 0x00, 0x00, 0x08, 0x18, 0x00, 0x00, 0x00, 0x0c, 0x00, 0x00, 0x00,
    0x04, 0x00, 0x00, 0x00, 0x1c, 0xfc, 0xff, 0xff, 0x01, 0x00, 0x00, 0x00,
    0x00, 0x00, 0x00, 0x00, 0x03, 0x00, 0x00, 0x00, 0x07, 0x00, 0x00, 0x00,
    0x08, 0x00, 0x00, 0x00, 0x09, 0x00, 0x00, 0x00, 0x00, 0x00, 0x0e, 0x00,
    0x14, 0x00, 0x00, 0x00, 0x08, 0x00, 0x0c, 0x00, 0x07, 0x00, 0x10, 0x00,
    0x0e, 0x00, 0x00, 0x00, 0x00, 0x00, 0x00, 0x08, 0x1c, 0x00, 0x00, 0x00,
    0x10, 0x00, 0x00, 0x00, 0x04, 0x00, 0x00, 0x00, 0xba, 0xff, 0xff, 0xff,
    0x00, 0x00, 0x00, 0x01, 0x01, 0x00, 0x00, 0x00, 0x07, 0x00, 0x00, 0x00,
    0x03, 0x00, 0x00, 0x00, 0x04, 0x00, 0x00, 0x00, 0x05, 0x00, 0x00, 0x00,
    0x06, 0x00, 0x00, 0x00, 0x00, 0x00, 0x0e, 0x00, 0x16, 0x00, 0x00, 0x00,
    0x08, 0x00, 0x0c, 0x00, 0x07, 0x00, 0x10, 0x00, 0x0e, 0x00, 0x00, 0x00,
    0x00, 0x00, 0x00, 0x08, 0x24, 0x00, 0x00, 0x00, 0x18, 0x00, 0x00, 0x00,
    0x0c, 0x00, 0x00, 0x00, 0x00, 0x00, 0x06, 0x00, 0x08, 0x00, 0x07, 0x00,
    0x06, 0x00, 0x00, 0x00, 0x00, 0x00, 0x00, 0x01, 0x01, 0x00, 0x00, 0x00,
    0x04, 0x00, 0x00, 0x00, 0x03, 0x00, 0x00, 0x00, 0x01, 0x00, 0x00, 0x00,
    0x02, 0x00, 0x00, 0x00, 0x03, 0x00, 0x00, 0x00, 0x01, 0x00, 0x00, 0x00,
    0x00, 0x00, 0x00, 0x00, 0x01, 0x00, 0x00, 0x00, 0x01, 0x00, 0x00, 0x00,
    0x0a, 0x00, 0x00, 0x00, 0x10, 0x03, 0x00, 0x00, 0xa4, 0x02, 0x00, 0x00,
    0x40, 0x02, 0x00, 0x00, 0xf4, 0x01, 0x00, 0x00, 0xac, 0x01, 0x00, 0x00,
    0x48, 0x01, 0x00, 0x00, 0xfc, 0x00, 0x00, 0x00, 0xb4, 0x00, 0x00, 0x00,
    0x50, 0x00, 0x00, 0x00, 0x04, 0x00, 0x00, 0x00, 0x26, 0xfd, 0xff, 0xff,
    0x3c, 0x00, 0x00, 0x00, 0x01, 0x00, 0x00, 0x00, 0x0c, 0x00, 0x00, 0x00,
    0x04, 0x00, 0x00, 0x00, 0x18, 0xfd, 0xff, 0xff, 0x20, 0x00, 0x00, 0x00,
    0x73, 0x65, 0x71, 0x75, 0x65, 0x6e, 0x74, 0x69, 0x61, 0x6c, 0x5f, 0x31,
    0x2f, 0x64, 0x65, 0x6e, 0x73, 0x65, 0x5f, 0x34, 0x2f, 0x4d, 0x61, 0x74,
    0x4d, 0x75, 0x6c, 0x5f, 0x62, 0x69, 0x61, 0x73, 0x00, 0x00, 0x00, 0x00,
    0x01, 0x00, 0x00, 0x00, 0x01, 0x00, 0x00, 0x00, 0x6e, 0xfd, 0xff, 0xff,
    0x50, 0x00, 0x00, 0x00, 0x02, 0x00, 0x00, 0x00, 0x0c, 0x00, 0x00, 0x00,
    0x04, 0x00, 0x00, 0x00, 0x60, 0xfd, 0xff, 0xff, 0x34, 0x00, 0x00, 0x00,
    0x73, 0x65, 0x71, 0x75, 0x65, 0x6e, 0x74, 0x69, 0x61, 0x6c, 0x5f, 0x31,
    0x2f, 0x64, 0x65, 0x6e, 0x73, 0x65, 0x5f, 0x34, 0x2f, 0x4d, 0x61, 0x74,
    0x4d, 0x75, 0x6c, 0x2f, 0x52, 0x65, 0x61, 0x64, 0x56, 0x61, 0x72, 0x69,
    0x61, 0x62, 0x6c, 0x65, 0x4f, 0x70, 0x2f, 0x74, 0x72, 0x61, 0x6e, 0x73,
    0x70, 0x6f, 0x73, 0x65, 0x00, 0x00, 0x00, 0x00, 0x02, 0x00, 0x00, 0x00,
    0x01, 0x00, 0x00, 0x00, 0x10, 0x00, 0x00, 0x00, 0xce, 0xfd, 0xff, 0xff,
    0x34, 0x00, 0x00, 0x00, 0x08, 0x00, 0x00, 0x00, 0x0c, 0x00, 0x00, 0x00,
    0x04, 0x00, 0x00, 0x00, 0xc0, 0xfd, 0xff, 0xff, 0x19, 0x00, 0x00, 0x00,
    0x73, 0x65, 0x71, 0x75, 0x65, 0x6e, 0x74, 0x69, 0x61, 0x6c, 0x5f, 0x31,
    0x2f, 0x64, 0x65, 0x6e, 0x73, 0x65, 0x5f, 0x33, 0x2f, 0x52, 0x65, 0x6c,
    0x75, 0x00, 0x00, 0x00, 0x02, 0x00, 0x00, 0x00, 0x01, 0x00, 0x00, 0x00,
    0x10, 0x00, 0x00, 0x00, 0x12, 0xfe, 0xff, 0xff, 0x3c, 0x00, 0x00, 0x00,
    0x03, 0x00, 0x00, 0x00, 0x0c, 0x00, 0x00, 0x00, 0x04, 0x00, 0x00, 0x00,
    0x04, 0xfe, 0xff, 0xff, 0x20, 0x00, 0x00, 0x00, 0x73, 0x65, 0x71, 0x75,
    0x65, 0x6e, 0x74, 0x69, 0x61, 0x6c, 0x5f, 0x31, 0x2f, 0x64, 0x65, 0x6e,
    0x73, 0x65, 0x5f, 0x33, 0x2f, 0x4d, 0x61, 0x74, 0x4d, 0x75, 0x6c, 0x5f,
    0x62, 0x69, 0x61, 0x73, 0x00, 0x00, 0x00, 0x00, 0x01, 0x00, 0x00, 0x00,
    0x10, 0x00, 0x00, 0x00, 0x5a, 0xfe, 0xff, 0xff, 0x50, 0x00, 0x00, 0x00,
    0x04, 0x00, 0x00, 0x00, 0x0c, 0x00, 0x00, 0x00, 0x04, 0x00, 0x00, 0x00,
    0x4c, 0xfe, 0xff, 0xff, 0x34, 0x00, 0x00, 0x00, 0x73, 0x65, 0x71, 0x75,
    0x65, 0x6e, 0x74, 0x69, 0x61, 0x6c, 0x5f, 0x31, 0x2f, 0x64, 0x65, 0x6e,
    0x73, 0x65, 0x5f, 0x33, 0x2f, 0x4d, 0x61, 0x74, 0x4d, 0x75, 0x6c, 0x2f,
    0x52, 0x65, 0x61, 0x64, 0x56, 0x61, 0x72, 0x69, 0x61, 0x62, 0x6c, 0x65,
    0x4f, 0x70, 0x2f, 0x74, 0x72, 0x61, 0x6e, 0x73, 0x70, 0x6f, 0x73, 0x65,
    0x00, 0x00, 0x00, 0x00, 0x02, 0x00, 0x00, 0x00, 0x10, 0x00, 0x00, 0x00,
    0x10, 0x00, 0x00, 0x00, 0xba, 0xfe, 0xff, 0xff, 0x34, 0x00, 0x00, 0x00,
    0x0a, 0x00, 0x00, 0x00, 0x0c, 0x00, 0x00, 0x00, 0x04, 0x00, 0x00, 0x00,
    0xac, 0xfe, 0xff, 0xff, 0x19, 0x00, 0x00, 0x00, 0x73, 0x65, 0x71, 0x75,
    0x65, 0x6e, 0x74, 0x69, 0x61, 0x6c, 0x5f, 0x31, 0x2f, 0x64, 0x65, 0x6e,
    0x73, 0x65, 0x5f, 0x32, 0x2f, 0x52, 0x65, 0x6c, 0x75, 0x00, 0x00, 0x00,
    0x02, 0x00, 0x00, 0x00, 0x01, 0x00, 0x00, 0x00, 0x10, 0x00, 0x00, 0x00,
    0xfe, 0xfe, 0xff, 0xff, 0x3c, 0x00, 0x00, 0x00, 0x05, 0x00, 0x00, 0x00,
    0x0c, 0x00, 0x00, 0x00, 0x04, 0x00, 0x00, 0x00, 0xf0, 0xfe, 0xff, 0xff,
    0x20, 0x00, 0x00, 0x00, 0x73, 0x65, 0x71, 0x75, 0x65, 0x6e, 0x74, 0x69,
    0x61, 0x6c, 0x5f, 0x31, 0x2f, 0x64, 0x65, 0x6e, 0x73, 0x65, 0x5f, 0x32,
    0x2f, 0x4d, 0x61, 0x74, 0x4d, 0x75, 0x6c, 0x5f, 0x62, 0x69, 0x61, 0x73,
    0x00, 0x00, 0x00, 0x00, 0x01, 0x00, 0x00, 0x00, 0x10, 0x00, 0x00, 0x00,
    0x46, 0xff, 0xff, 0xff, 0x50, 0x00, 0x00, 0x00, 0x06, 0x00, 0x00, 0x00,
    0x0c, 0x00, 0x00, 0x00, 0x04, 0x00, 0x00, 0x00, 0x38, 0xff, 0xff, 0xff,
    0x34, 0x00, 0x00, 0x00, 0x73, 0x65, 0x71, 0x75, 0x65, 0x6e, 0x74, 0x69,
    0x61, 0x6c, 0x5f, 0x31, 0x2f, 0x64, 0x65, 0x6e, 0x73, 0x65, 0x5f, 0x32,
    0x2f, 0x4d, 0x61, 0x74, 0x4d, 0x75, 0x6c, 0x2f, 0x52, 0x65, 0x61, 0x64,
    0x56, 0x61, 0x72, 0x69, 0x61, 0x62, 0x6c, 0x65, 0x4f, 0x70, 0x2f, 0x74,
    0x72, 0x61, 0x6e, 0x73, 0x70, 0x6f, 0x73, 0x65, 0x00, 0x00, 0x00, 0x00,
    0x02, 0x00, 0x00, 0x00, 0x10, 0x00, 0x00, 0x00, 0x01, 0x00, 0x00, 0x00,
    0xa6, 0xff, 0xff, 0xff, 0x48, 0x00, 0x00, 0x00, 0x09, 0x00, 0x00, 0x00,
    0x2c, 0x00, 0x00, 0x00, 0x0c, 0x00, 0x00, 0x00, 0x08, 0x00, 0x0c, 0x00,
    0x04, 0x00, 0x08, 0x00, 0x08, 0x00, 0x00, 0x00, 0x10, 0x00, 0x00, 0x00,
    0x04, 0x00, 0x00, 0x00, 0x01, 0x00, 0x00, 0x00, 0x00, 0x00, 0x7f, 0x43,
    0x01, 0x00, 0x00, 0x00, 0x00, 0x00, 0x00, 0x00, 0x0d, 0x00, 0x00, 0x00,
    0x64, 0x65, 0x6e, 0x73, 0x65, 0x5f, 0x32, 0x5f, 0x69, 0x6e, 0x70, 0x75,
    0x74, 0x00, 0x00, 0x00, 0x02, 0x00, 0x00, 0x00, 0x01, 0x00, 0x00, 0x00,
    0x01, 0x00, 0x00, 0x00, 0x00, 0x00, 0x0e, 0x00, 0x14, 0x00, 0x04, 0x00,
    0x00, 0x00, 0x08, 0x00, 0x0c, 0x00, 0x10, 0x00, 0x0e, 0x00, 0x00, 0x00,
    0x28, 0x00, 0x00, 0x00, 0x07, 0x00, 0x00, 0x00, 0x10, 0x00, 0x00, 0x00,
    0x08, 0x00, 0x00, 0x00, 0x04, 0x00, 0x04, 0x00, 0x04, 0x00, 0x00, 0x00,
    0x08, 0x00, 0x00, 0x00, 0x49, 0x64, 0x65, 0x6e, 0x74, 0x69, 0x74, 0x79,
    0x00, 0x00, 0x00, 0x00, 0x02, 0x00, 0x00, 0x00, 0x01, 0x00, 0x00, 0x00,
    0x01, 0x00, 0x00, 0x00, 0x01, 0x00, 0x00, 0x00, 0x10, 0x00, 0x00, 0x00,
    0x00, 0x00, 0x0a, 0x00, 0x0c, 0x00, 0x07, 0x00, 0x00, 0x00, 0x08, 0x00,
    0x0a, 0x00, 0x00, 0x00, 0x00, 0x00, 0x00, 0x09, 0x03, 0x00, 0x00, 0x00};
const int g_sine_model_data_len = 2640;







unsigned char sine_model2[] = {
  0x1c, 0x00, 0x00, 0x00, 0x54, 0x46, 0x4c, 0x33, 0x14, 0x00, 0x20, 0x00,
  0x1c, 0x00, 0x18, 0x00, 0x14, 0x00, 0x10, 0x00, 0x0c, 0x00, 0x00, 0x00,
  0x08, 0x00, 0x04, 0x00, 0x14, 0x00, 0x00, 0x00, 0x1c, 0x00, 0x00, 0x00,
  0x98, 0x00, 0x00, 0x00, 0xc8, 0x00, 0x00, 0x00, 0x1c, 0x03, 0x00, 0x00,
  0x2c, 0x03, 0x00, 0x00, 0x30, 0x09, 0x00, 0x00, 0x03, 0x00, 0x00, 0x00,
  0x01, 0x00, 0x00, 0x00, 0x04, 0x00, 0x00, 0x00, 0x60, 0xf7, 0xff, 0xff,
  0x10, 0x00, 0x00, 0x00, 0x18, 0x00, 0x00, 0x00, 0x28, 0x00, 0x00, 0x00,
  0x44, 0x00, 0x00, 0x00, 0x05, 0x00, 0x00, 0x00, 0x73, 0x65, 0x72, 0x76,
  0x65, 0x00, 0x00, 0x00, 0x0f, 0x00, 0x00, 0x00, 0x73, 0x65, 0x72, 0x76,
  0x69, 0x6e, 0x67, 0x5f, 0x64, 0x65, 0x66, 0x61, 0x75, 0x6c, 0x74, 0x00,
  0x01, 0x00, 0x00, 0x00, 0x04, 0x00, 0x00, 0x00, 0xbc, 0xff, 0xff, 0xff,
  0x09, 0x00, 0x00, 0x00, 0x04, 0x00, 0x00, 0x00, 0x07, 0x00, 0x00, 0x00,
  0x64, 0x65, 0x6e, 0x73, 0x65, 0x5f, 0x34, 0x00, 0x01, 0x00, 0x00, 0x00,
  0x04, 0x00, 0x00, 0x00, 0x76, 0xfd, 0xff, 0xff, 0x04, 0x00, 0x00, 0x00,
  0x0d, 0x00, 0x00, 0x00, 0x64, 0x65, 0x6e, 0x73, 0x65, 0x5f, 0x32, 0x5f,
  0x69, 0x6e, 0x70, 0x75, 0x74, 0x00, 0x00, 0x00, 0x01, 0x00, 0x00, 0x00,
  0x0c, 0x00, 0x00, 0x00, 0x08, 0x00, 0x0c, 0x00, 0x08, 0x00, 0x04, 0x00,
  0x08, 0x00, 0x00, 0x00, 0x0b, 0x00, 0x00, 0x00, 0x04, 0x00, 0x00, 0x00,
  0x13, 0x00, 0x00, 0x00, 0x6d, 0x69, 0x6e, 0x5f, 0x72, 0x75, 0x6e, 0x74,
  0x69, 0x6d, 0x65, 0x5f, 0x76, 0x65, 0x72, 0x73, 0x69, 0x6f, 0x6e, 0x00,
  0x0c, 0x00, 0x00, 0x00, 0x50, 0x02, 0x00, 0x00, 0x48, 0x02, 0x00, 0x00,
  0x34, 0x02, 0x00, 0x00, 0xdc, 0x01, 0x00, 0x00, 0x8c, 0x01, 0x00, 0x00,
  0x6c, 0x01, 0x00, 0x00, 0x5c, 0x00, 0x00, 0x00, 0x3c, 0x00, 0x00, 0x00,
  0x34, 0x00, 0x00, 0x00, 0x2c, 0x00, 0x00, 0x00, 0x24, 0x00, 0x00, 0x00,
  0x04, 0x00, 0x00, 0x00, 0xfa, 0xfd, 0xff, 0xff, 0x04, 0x00, 0x00, 0x00,
  0x10, 0x00, 0x00, 0x00, 0x31, 0x2e, 0x35, 0x2e, 0x30, 0x00, 0x00, 0x00,
  0x00, 0x00, 0x00, 0x00, 0x00, 0x00, 0x00, 0x00, 0x84, 0xfd, 0xff, 0xff,
  0x88, 0xfd, 0xff, 0xff, 0x8c, 0xfd, 0xff, 0xff, 0x22, 0xfe, 0xff, 0xff,
  0x04, 0x00, 0x00, 0x00, 0x10, 0x00, 0x00, 0x00, 0x21, 0xa5, 0x8b, 0xca,
  0x5e, 0x1d, 0xce, 0x42, 0x9d, 0xce, 0x1f, 0xb0, 0xdf, 0x54, 0x2f, 0x81,
  0x3e, 0xfe, 0xff, 0xff, 0x04, 0x00, 0x00, 0x00, 0x00, 0x01, 0x00, 0x00,
  0xee, 0xfc, 0x00, 0xec, 0x05, 0x17, 0xef, 0xec, 0xe6, 0xf8, 0x03, 0x01,
  0x00, 0xfa, 0xf8, 0xf5, 0xdc, 0xeb, 0x27, 0x14, 0xf1, 0xde, 0xe2, 0xdb,
  0xf0, 0xde, 0x31, 0x06, 0x02, 0xe6, 0xee, 0xf9, 0x00, 0x16, 0x07, 0xe0,
  0xfe, 0xff, 0xe9, 0x06, 0xe7, 0xef, 0x81, 0x1b, 0x18, 0xea, 0xc9, 0x01,
  0x0f, 0x00, 0xda, 0xf7, 0x0e, 0xec, 0x13, 0x1f, 0x04, 0x13, 0xb4, 0xe6,
  0xfd, 0x06, 0xb9, 0xe0, 0x0d, 0xec, 0xf0, 0xde, 0xeb, 0xf7, 0x05, 0x26,
  0x1a, 0xe4, 0x6f, 0x1a, 0xea, 0x1e, 0x35, 0xdf, 0x1a, 0xf3, 0xf1, 0x19,
  0x0f, 0x03, 0x1b, 0xe1, 0xde, 0x13, 0xf6, 0x19, 0xff, 0xf6, 0x1b, 0x18,
  0xf0, 0x1c, 0xda, 0x1b, 0x1b, 0x20, 0xe5, 0x1a, 0xf5, 0xff, 0x96, 0x0b,
  0x00, 0x01, 0xcd, 0xde, 0x0d, 0xf6, 0x16, 0xe3, 0xed, 0xfc, 0x0e, 0xe9,
  0xfa, 0xeb, 0x5c, 0xfc, 0x1d, 0x02, 0x5b, 0xe2, 0xe1, 0xf5, 0x15, 0xec,
  0xf4, 0x00, 0x13, 0x05, 0xec, 0x0c, 0x1d, 0x14, 0x0e, 0xe7, 0x0b, 0xf4,
  0x19, 0x00, 0xd7, 0x05, 0x27, 0x02, 0x15, 0xea, 0xea, 0x02, 0x9b, 0x00,
  0x0c, 0xfa, 0xe8, 0xea, 0xfd, 0x00, 0x14, 0xfd, 0x0b, 0x02, 0xef, 0xee,
  0x06, 0xee, 0x01, 0x0d, 0x06, 0xe6, 0xf7, 0x11, 0xf7, 0x09, 0xf8, 0xf1,
  0x21, 0xff, 0x0e, 0xf3, 0xec, 0x12, 0x26, 0x1d, 0xf2, 0xe9, 0x28, 0x18,
  0xe0, 0xfb, 0xf3, 0xf4, 0x05, 0x1d, 0x1d, 0xfb, 0xfd, 0x1e, 0xfc, 0x11,
  0xe8, 0x07, 0x09, 0x03, 0x12, 0xf2, 0x36, 0xfb, 0xdc, 0x1c, 0xf9, 0xef,
  0xf3, 0xe7, 0x6f, 0x0c, 0x1d, 0x00, 0x45, 0xfd, 0x0e, 0xf0, 0x0b, 0x19,
  0x1a, 0xfa, 0xe0, 0x19, 0x1f, 0x13, 0x36, 0x1c, 0x12, 0xeb, 0x3b, 0x0c,
  0xb4, 0xcb, 0xe6, 0x13, 0xfa, 0xeb, 0xf1, 0x06, 0x1c, 0xfa, 0x18, 0xe5,
  0xeb, 0xcb, 0x0c, 0xf4, 0x4a, 0xff, 0xff, 0xff, 0x04, 0x00, 0x00, 0x00,
  0x10, 0x00, 0x00, 0x00, 0x75, 0x1c, 0x11, 0xe1, 0x0c, 0x81, 0xa5, 0x42,
  0xfe, 0xd5, 0xd4, 0xb2, 0x61, 0x78, 0x19, 0xdf, 0x66, 0xff, 0xff, 0xff,
  0x04, 0x00, 0x00, 0x00, 0x40, 0x00, 0x00, 0x00, 0x04, 0x00, 0x00, 0x00,
  0x77, 0x0b, 0x00, 0x00, 0x53, 0xf6, 0xff, 0xff, 0x00, 0x00, 0x00, 0x00,
  0x77, 0x0c, 0x00, 0x00, 0x00, 0x00, 0x00, 0x00, 0x00, 0x00, 0x00, 0x00,
  0xd3, 0x06, 0x00, 0x00, 0x00, 0x00, 0x00, 0x00, 0x00, 0x00, 0x00, 0x00,
  0x72, 0x21, 0x00, 0x00, 0x00, 0x00, 0x00, 0x00, 0x2f, 0x07, 0x00, 0x00,
  0x67, 0xf5, 0xff, 0xff, 0x34, 0xf0, 0xff, 0xff, 0x00, 0x00, 0x00, 0x00,
  0xb2, 0xff, 0xff, 0xff, 0x04, 0x00, 0x00, 0x00, 0x40, 0x00, 0x00, 0x00,
  0x00, 0x00, 0x00, 0x00, 0xb5, 0x04, 0x00, 0x00, 0x78, 0x0a, 0x00, 0x00,
  0x2d, 0x06, 0x00, 0x00, 0x71, 0xf8, 0xff, 0xff, 0x00, 0x00, 0x00, 0x00,
  0x9a, 0x0a, 0x00, 0x00, 0xfe, 0xf7, 0xff, 0xff, 0x0e, 0x05, 0x00, 0x00,
  0xd4, 0x09, 0x00, 0x00, 0x47, 0xfe, 0xff, 0xff, 0xb6, 0x04, 0x00, 0x00,
  0x00, 0x00, 0x00, 0x00, 0xac, 0xf7, 0xff, 0xff, 0x4b, 0xf9, 0xff, 0xff,
  0x4a, 0x05, 0x00, 0x00, 0x00, 0x00, 0x06, 0x00, 0x08, 0x00, 0x04, 0x00,
  0x06, 0x00, 0x00, 0x00, 0x04, 0x00, 0x00, 0x00, 0x04, 0x00, 0x00, 0x00,
  0x8c, 0xef, 0xff, 0xff, 0x84, 0xff, 0xff, 0xff, 0x88, 0xff, 0xff, 0xff,
  0x0f, 0x00, 0x00, 0x00, 0x4d, 0x4c, 0x49, 0x52, 0x20, 0x43, 0x6f, 0x6e,
  0x76, 0x65, 0x72, 0x74, 0x65, 0x64, 0x2e, 0x00, 0x01, 0x00, 0x00, 0x00,
  0x14, 0x00, 0x00, 0x00, 0x00, 0x00, 0x0e, 0x00, 0x18, 0x00, 0x14, 0x00,
  0x10, 0x00, 0x0c, 0x00, 0x08, 0x00, 0x04, 0x00, 0x0e, 0x00, 0x00, 0x00,
  0x14, 0x00, 0x00, 0x00, 0x1c, 0x00, 0x00, 0x00, 0xdc, 0x00, 0x00, 0x00,
  0xe0, 0x00, 0x00, 0x00, 0xe4, 0x00, 0x00, 0x00, 0x04, 0x00, 0x00, 0x00,
  0x6d, 0x61, 0x69, 0x6e, 0x00, 0x00, 0x00, 0x00, 0x03, 0x00, 0x00, 0x00,
  0x84, 0x00, 0x00, 0x00, 0x3c, 0x00, 0x00, 0x00, 0x04, 0x00, 0x00, 0x00,
  0x96, 0xff, 0xff, 0xff, 0x14, 0x00, 0x00, 0x00, 0x00, 0x00, 0x00, 0x08,
  0x10, 0x00, 0x00, 0x00, 0x14, 0x00, 0x00, 0x00, 0x04, 0x00, 0x04, 0x00,
  0x04, 0x00, 0x00, 0x00, 0x01, 0x00, 0x00, 0x00, 0x09, 0x00, 0x00, 0x00,
  0x03, 0x00, 0x00, 0x00, 0x08, 0x00, 0x00, 0x00, 0x06, 0x00, 0x00, 0x00,
  0x01, 0x00, 0x00, 0x00, 0xca, 0xff, 0xff, 0xff, 0x10, 0x00, 0x00, 0x00,
  0x00, 0x00, 0x00, 0x08, 0x10, 0x00, 0x00, 0x00, 0x14, 0x00, 0x00, 0x00,
  0xba, 0xff, 0xff, 0xff, 0x00, 0x00, 0x00, 0x01, 0x01, 0x00, 0x00, 0x00,
  0x08, 0x00, 0x00, 0x00, 0x03, 0x00, 0x00, 0x00, 0x07, 0x00, 0x00, 0x00,
  0x05, 0x00, 0x00, 0x00, 0x02, 0x00, 0x00, 0x00, 0x00, 0x00, 0x0e, 0x00,
  0x16, 0x00, 0x00, 0x00, 0x10, 0x00, 0x0c, 0x00, 0x0b, 0x00, 0x04, 0x00,
  0x0e, 0x00, 0x00, 0x00, 0x18, 0x00, 0x00, 0x00, 0x00, 0x00, 0x00, 0x08,
  0x18, 0x00, 0x00, 0x00, 0x1c, 0x00, 0x00, 0x00, 0x00, 0x00, 0x06, 0x00,
  0x08, 0x00, 0x07, 0x00, 0x06, 0x00, 0x00, 0x00, 0x00, 0x00, 0x00, 0x01,
  0x01, 0x00, 0x00, 0x00, 0x07, 0x00, 0x00, 0x00, 0x03, 0x00, 0x00, 0x00,
  0x00, 0x00, 0x00, 0x00, 0x04, 0x00, 0x00, 0x00, 0x03, 0x00, 0x00, 0x00,
  0x01, 0x00, 0x00, 0x00, 0x09, 0x00, 0x00, 0x00, 0x01, 0x00, 0x00, 0x00,
  0x00, 0x00, 0x00, 0x00, 0x0a, 0x00, 0x00, 0x00, 0x4c, 0x04, 0x00, 0x00,
  0xd0, 0x03, 0x00, 0x00, 0x68, 0x03, 0x00, 0x00, 0x0c, 0x03, 0x00, 0x00,
  0x98, 0x02, 0x00, 0x00, 0x24, 0x02, 0x00, 0x00, 0xb0, 0x01, 0x00, 0x00,
  0x24, 0x01, 0x00, 0x00, 0x98, 0x00, 0x00, 0x00, 0x04, 0x00, 0x00, 0x00,
  0xf0, 0xfb, 0xff, 0xff, 0x18, 0x00, 0x00, 0x00, 0x20, 0x00, 0x00, 0x00,
  0x54, 0x00, 0x00, 0x00, 0x0a, 0x00, 0x00, 0x00, 0x00, 0x00, 0x00, 0x09,
  0x6c, 0x00, 0x00, 0x00, 0x02, 0x00, 0x00, 0x00, 0xff, 0xff, 0xff, 0xff,
  0x01, 0x00, 0x00, 0x00, 0xdc, 0xfb, 0xff, 0xff, 0x10, 0x00, 0x00, 0x00,
  0x18, 0x00, 0x00, 0x00, 0x1c, 0x00, 0x00, 0x00, 0x20, 0x00, 0x00, 0x00,
  0x01, 0x00, 0x00, 0x00, 0x04, 0x00, 0x00, 0x00, 0x00, 0x00, 0x00, 0x00,
  0x01, 0x00, 0x00, 0x00, 0x4a, 0xce, 0x0a, 0x3c, 0x01, 0x00, 0x00, 0x00,
  0x34, 0x84, 0x85, 0x3f, 0x01, 0x00, 0x00, 0x00, 0xc5, 0x02, 0x8f, 0xbf,
  0x1e, 0x00, 0x00, 0x00, 0x53, 0x74, 0x61, 0x74, 0x65, 0x66, 0x75, 0x6c,
  0x50, 0x61, 0x72, 0x74, 0x69, 0x74, 0x69, 0x6f, 0x6e, 0x65, 0x64, 0x43,
  0x61, 0x6c, 0x6c, 0x3a, 0x30, 0x5f, 0x69, 0x6e, 0x74, 0x38, 0x00, 0x00,
  0x02, 0x00, 0x00, 0x00, 0x01, 0x00, 0x00, 0x00, 0x01, 0x00, 0x00, 0x00,
  0x80, 0xfc, 0xff, 0xff, 0x18, 0x00, 0x00, 0x00, 0x20, 0x00, 0x00, 0x00,
  0x54, 0x00, 0x00, 0x00, 0x09, 0x00, 0x00, 0x00, 0x00, 0x00, 0x00, 0x09,
  0x64, 0x00, 0x00, 0x00, 0x02, 0x00, 0x00, 0x00, 0xff, 0xff, 0xff, 0xff,
  0x10, 0x00, 0x00, 0x00, 0x6c, 0xfc, 0xff, 0xff, 0x10, 0x00, 0x00, 0x00,
  0x18, 0x00, 0x00, 0x00, 0x1c, 0x00, 0x00, 0x00, 0x20, 0x00, 0x00, 0x00,
  0x01, 0x00, 0x00, 0x00, 0x80, 0xff, 0xff, 0xff, 0xff, 0xff, 0xff, 0xff,
  0x01, 0x00, 0x00, 0x00, 0x93, 0xd0, 0xc0, 0x3b, 0x01, 0x00, 0x00, 0x00,
  0xc2, 0x0f, 0xc0, 0x3f, 0x01, 0x00, 0x00, 0x00, 0x00, 0x00, 0x00, 0x00,
  0x14, 0x00, 0x00, 0x00, 0x74, 0x66, 0x6c, 0x2e, 0x66, 0x75, 0x6c, 0x6c,
  0x79, 0x5f, 0x63, 0x6f, 0x6e, 0x6e, 0x65, 0x63, 0x74, 0x65, 0x64, 0x31,
  0x00, 0x00, 0x00, 0x00, 0x02, 0x00, 0x00, 0x00, 0x01, 0x00, 0x00, 0x00,
  0x10, 0x00, 0x00, 0x00, 0x08, 0xfd, 0xff, 0xff, 0x18, 0x00, 0x00, 0x00,
  0x20, 0x00, 0x00, 0x00, 0x58, 0x00, 0x00, 0x00, 0x08, 0x00, 0x00, 0x00,
  0x00, 0x00, 0x00, 0x09, 0x64, 0x00, 0x00, 0x00, 0x02, 0x00, 0x00, 0x00,
  0xff, 0xff, 0xff, 0xff, 0x10, 0x00, 0x00, 0x00, 0xf4, 0xfc, 0xff, 0xff,
  0x10, 0x00, 0x00, 0x00, 0x1c, 0x00, 0x00, 0x00, 0x20, 0x00, 0x00, 0x00,
  0x24, 0x00, 0x00, 0x00, 0x01, 0x00, 0x00, 0x00, 0x80, 0xff, 0xff, 0xff,
  0xff, 0xff, 0xff, 0xff, 0x00, 0x00, 0x00, 0x00, 0x01, 0x00, 0x00, 0x00,
  0xe0, 0xdb, 0x47, 0x3c, 0x01, 0x00, 0x00, 0x00, 0x04, 0x14, 0x47, 0x40,
  0x01, 0x00, 0x00, 0x00, 0x00, 0x00, 0x00, 0x00, 0x13, 0x00, 0x00, 0x00,
  0x74, 0x66, 0x6c, 0x2e, 0x66, 0x75, 0x6c, 0x6c, 0x79, 0x5f, 0x63, 0x6f,
  0x6e, 0x6e, 0x65, 0x63, 0x74, 0x65, 0x64, 0x00, 0x02, 0x00, 0x00, 0x00,
  0x01, 0x00, 0x00, 0x00, 0x10, 0x00, 0x00, 0x00, 0x02, 0xfe, 0xff, 0xff,
  0x14, 0x00, 0x00, 0x00, 0x48, 0x00, 0x00, 0x00, 0x07, 0x00, 0x00, 0x00,
  0x00, 0x00, 0x00, 0x09, 0x50, 0x00, 0x00, 0x00, 0x6c, 0xfd, 0xff, 0xff,
  0x10, 0x00, 0x00, 0x00, 0x18, 0x00, 0x00, 0x00, 0x1c, 0x00, 0x00, 0x00,
  0x20, 0x00, 0x00, 0x00, 0x01, 0x00, 0x00, 0x00, 0x00, 0x00, 0x00, 0x00,
  0x00, 0x00, 0x00, 0x00, 0x01, 0x00, 0x00, 0x00, 0xfb, 0x4b, 0x0b, 0x3c,
  0x01, 0x00, 0x00, 0x00, 0x40, 0x84, 0x4b, 0x3f, 0x01, 0x00, 0x00, 0x00,
  0x63, 0x35, 0x8a, 0xbf, 0x0d, 0x00, 0x00, 0x00, 0x73, 0x74, 0x64, 0x2e,
  0x63, 0x6f, 0x6e, 0x73, 0x74, 0x61, 0x6e, 0x74, 0x32, 0x00, 0x00, 0x00,
  0x02, 0x00, 0x00, 0x00, 0x01, 0x00, 0x00, 0x00, 0x10, 0x00, 0x00, 0x00,
  0x72, 0xfe, 0xff, 0xff, 0x14, 0x00, 0x00, 0x00, 0x48, 0x00, 0x00, 0x00,
  0x06, 0x00, 0x00, 0x00, 0x00, 0x00, 0x00, 0x09, 0x50, 0x00, 0x00, 0x00,
  0xdc, 0xfd, 0xff, 0xff, 0x10, 0x00, 0x00, 0x00, 0x18, 0x00, 0x00, 0x00,
  0x1c, 0x00, 0x00, 0x00, 0x20, 0x00, 0x00, 0x00, 0x01, 0x00, 0x00, 0x00,
  0x00, 0x00, 0x00, 0x00, 0x00, 0x00, 0x00, 0x00, 0x01, 0x00, 0x00, 0x00,
  0x60, 0x01, 0x4f, 0x3c, 0x01, 0x00, 0x00, 0x00, 0x47, 0x6d, 0xb3, 0x3f,
  0x01, 0x00, 0x00, 0x00, 0x5d, 0x63, 0xcd, 0xbf, 0x0d, 0x00, 0x00, 0x00,
  0x73, 0x74, 0x64, 0x2e, 0x63, 0x6f, 0x6e, 0x73, 0x74, 0x61, 0x6e, 0x74,
  0x31, 0x00, 0x00, 0x00, 0x02, 0x00, 0x00, 0x00, 0x10, 0x00, 0x00, 0x00,
  0x10, 0x00, 0x00, 0x00, 0xe2, 0xfe, 0xff, 0xff, 0x14, 0x00, 0x00, 0x00,
  0x48, 0x00, 0x00, 0x00, 0x05, 0x00, 0x00, 0x00, 0x00, 0x00, 0x00, 0x09,
  0x50, 0x00, 0x00, 0x00, 0x4c, 0xfe, 0xff, 0xff, 0x10, 0x00, 0x00, 0x00,
  0x18, 0x00, 0x00, 0x00, 0x1c, 0x00, 0x00, 0x00, 0x20, 0x00, 0x00, 0x00,
  0x01, 0x00, 0x00, 0x00, 0x00, 0x00, 0x00, 0x00, 0x00, 0x00, 0x00, 0x00,
  0x01, 0x00, 0x00, 0x00, 0xd5, 0x6b, 0x8a, 0x3b, 0x01, 0x00, 0x00, 0x00,
  0xab, 0x49, 0x01, 0x3f, 0x01, 0x00, 0x00, 0x00, 0xfd, 0x56, 0x09, 0xbf,
  0x0c, 0x00, 0x00, 0x00, 0x73, 0x74, 0x64, 0x2e, 0x63, 0x6f, 0x6e, 0x73,
  0x74, 0x61, 0x6e, 0x74, 0x00, 0x00, 0x00, 0x00, 0x02, 0x00, 0x00, 0x00,
  0x10, 0x00, 0x00, 0x00, 0x01, 0x00, 0x00, 0x00, 0x52, 0xff, 0xff, 0xff,
  0x14, 0x00, 0x00, 0x00, 0x34, 0x00, 0x00, 0x00, 0x04, 0x00, 0x00, 0x00,
  0x00, 0x00, 0x00, 0x02, 0x3c, 0x00, 0x00, 0x00, 0x44, 0xff, 0xff, 0xff,
  0x08, 0x00, 0x00, 0x00, 0x14, 0x00, 0x00, 0x00, 0x01, 0x00, 0x00, 0x00,
  0x00, 0x00, 0x00, 0x00, 0x00, 0x00, 0x00, 0x00, 0x00, 0x00, 0x00, 0x00,
  0x01, 0x00, 0x00, 0x00, 0x28, 0xb3, 0xd9, 0x38, 0x0c, 0x00, 0x00, 0x00,
  0x64, 0x65, 0x6e, 0x73, 0x65, 0x5f, 0x32, 0x2f, 0x62, 0x69, 0x61, 0x73,
  0x00, 0x00, 0x00, 0x00, 0x01, 0x00, 0x00, 0x00, 0x10, 0x00, 0x00, 0x00,
  0xaa, 0xff, 0xff, 0xff, 0x14, 0x00, 0x00, 0x00, 0x30, 0x00, 0x00, 0x00,
  0x03, 0x00, 0x00, 0x00, 0x00, 0x00, 0x00, 0x02, 0x38, 0x00, 0x00, 0x00,
  0x9c, 0xff, 0xff, 0xff, 0x08, 0x00, 0x00, 0x00, 0x10, 0x00, 0x00, 0x00,
  0x01, 0x00, 0x00, 0x00, 0x00, 0x00, 0x00, 0x00, 0x00, 0x00, 0x00, 0x00,
  0x01, 0x00, 0x00, 0x00, 0xdd, 0x9b, 0x21, 0x39, 0x0c, 0x00, 0x00, 0x00,
  0x64, 0x65, 0x6e, 0x73, 0x65, 0x5f, 0x33, 0x2f, 0x62, 0x69, 0x61, 0x73,
  0x00, 0x00, 0x00, 0x00, 0x01, 0x00, 0x00, 0x00, 0x10, 0x00, 0x00, 0x00,
  0x00, 0x00, 0x0e, 0x00, 0x18, 0x00, 0x14, 0x00, 0x13, 0x00, 0x0c, 0x00,
  0x08, 0x00, 0x04, 0x00, 0x0e, 0x00, 0x00, 0x00, 0x20, 0x00, 0x00, 0x00,
  0x40, 0x00, 0x00, 0x00, 0x02, 0x00, 0x00, 0x00, 0x00, 0x00, 0x00, 0x02,
  0x48, 0x00, 0x00, 0x00, 0x0c, 0x00, 0x0c, 0x00, 0x00, 0x00, 0x00, 0x00,
  0x08, 0x00, 0x04, 0x00, 0x0c, 0x00, 0x00, 0x00, 0x08, 0x00, 0x00, 0x00,
  0x14, 0x00, 0x00, 0x00, 0x01, 0x00, 0x00, 0x00, 0x00, 0x00, 0x00, 0x00,
  0x00, 0x00, 0x00, 0x00, 0x00, 0x00, 0x00, 0x00, 0x01, 0x00, 0x00, 0x00,
  0xf4, 0xd4, 0x51, 0x38, 0x0c, 0x00, 0x00, 0x00, 0x64, 0x65, 0x6e, 0x73,
  0x65, 0x5f, 0x34, 0x2f, 0x62, 0x69, 0x61, 0x73, 0x00, 0x00, 0x00, 0x00,
  0x01, 0x00, 0x00, 0x00, 0x01, 0x00, 0x00, 0x00, 0x14, 0x00, 0x1c, 0x00,
  0x18, 0x00, 0x17, 0x00, 0x10, 0x00, 0x0c, 0x00, 0x08, 0x00, 0x00, 0x00,
  0x00, 0x00, 0x04, 0x00, 0x14, 0x00, 0x00, 0x00, 0x18, 0x00, 0x00, 0x00,
  0x2c, 0x00, 0x00, 0x00, 0x64, 0x00, 0x00, 0x00, 0x01, 0x00, 0x00, 0x00,
  0x00, 0x00, 0x00, 0x09, 0x84, 0x00, 0x00, 0x00, 0x02, 0x00, 0x00, 0x00,
  0xff, 0xff, 0xff, 0xff, 0x01, 0x00, 0x00, 0x00, 0x0c, 0x00, 0x14, 0x00,
  0x10, 0x00, 0x0c, 0x00, 0x08, 0x00, 0x04, 0x00, 0x0c, 0x00, 0x00, 0x00,
  0x10, 0x00, 0x00, 0x00, 0x1c, 0x00, 0x00, 0x00, 0x20, 0x00, 0x00, 0x00,
  0x24, 0x00, 0x00, 0x00, 0x01, 0x00, 0x00, 0x00, 0x80, 0xff, 0xff, 0xff,
  0xff, 0xff, 0xff, 0xff, 0x00, 0x00, 0x00, 0x00, 0x01, 0x00, 0x00, 0x00,
  0x5d, 0x4f, 0xc9, 0x3c, 0x01, 0x00, 0x00, 0x00, 0x0e, 0x86, 0xc8, 0x40,
  0x01, 0x00, 0x00, 0x00, 0x00, 0x00, 0x00, 0x00, 0x24, 0x00, 0x00, 0x00,
  0x73, 0x65, 0x72, 0x76, 0x69, 0x6e, 0x67, 0x5f, 0x64, 0x65, 0x66, 0x61,
  0x75, 0x6c, 0x74, 0x5f, 0x64, 0x65, 0x6e, 0x73, 0x65, 0x5f, 0x32, 0x5f,
  0x69, 0x6e, 0x70, 0x75, 0x74, 0x3a, 0x30, 0x5f, 0x69, 0x6e, 0x74, 0x38,
  0x00, 0x00, 0x00, 0x00, 0x02, 0x00, 0x00, 0x00, 0x01, 0x00, 0x00, 0x00,
  0x01, 0x00, 0x00, 0x00, 0x03, 0x00, 0x00, 0x00, 0x40, 0x00, 0x00, 0x00,
  0x24, 0x00, 0x00, 0x00, 0x04, 0x00, 0x00, 0x00, 0xd8, 0xff, 0xff, 0xff,
  0x06, 0x00, 0x00, 0x00, 0x02, 0x00, 0x00, 0x00, 0x00, 0x00, 0x00, 0x06,
  0x0c, 0x00, 0x0c, 0x00, 0x0b, 0x00, 0x00, 0x00, 0x00, 0x00, 0x04, 0x00,
  0x0c, 0x00, 0x00, 0x00, 0x72, 0x00, 0x00, 0x00, 0x00, 0x00, 0x00, 0x72,
  0x0c, 0x00, 0x10, 0x00, 0x0f, 0x00, 0x00, 0x00, 0x08, 0x00, 0x04, 0x00,
  0x0c, 0x00, 0x00, 0x00, 0x09, 0x00, 0x00, 0x00, 0x04, 0x00, 0x00, 0x00,
  0x00, 0x00, 0x00, 0x09
};
unsigned int sine_model_len2 = 2488;


//self generated from google colab using 3 layers tflite_sinewave_training_addLayer.ipynb
const unsigned int sine_model_len3 = 2904;

const unsigned char sine_model3[] DATA_ALIGN_ATTRIBUTE = {
 0x1c, 0x00, 0x00, 0x00, 0x54, 0x46, 0x4c, 0x33, 0x14, 0x00, 0x20, 0x00,
  0x04, 0x00, 0x08, 0x00, 0x0c, 0x00, 0x10, 0x00, 0x14, 0x00, 0x00, 0x00,
  0x18, 0x00, 0x1c, 0x00, 0x14, 0x00, 0x00, 0x00, 0x03, 0x00, 0x00, 0x00,
  0x18, 0x00, 0x00, 0x00, 0x1c, 0x00, 0x00, 0x00, 0x24, 0x01, 0x00, 0x00,
  0x1c, 0x00, 0x00, 0x00, 0xcc, 0x00, 0x00, 0x00, 0x48, 0x00, 0x00, 0x00,
  0x01, 0x00, 0x00, 0x00, 0x4c, 0x03, 0x00, 0x00, 0x01, 0x00, 0x00, 0x00,
  0x2c, 0x01, 0x00, 0x00, 0x0c, 0x00, 0x00, 0x00, 0x04, 0x0b, 0x00, 0x00,
  0x00, 0x0b, 0x00, 0x00, 0x38, 0x0a, 0x00, 0x00, 0xa8, 0x09, 0x00, 0x00,
  0x28, 0x09, 0x00, 0x00, 0x98, 0x08, 0x00, 0x00, 0x44, 0x04, 0x00, 0x00,
  0xb0, 0x03, 0x00, 0x00, 0xe4, 0x0a, 0x00, 0x00, 0xe0, 0x0a, 0x00, 0x00,
  0xdc, 0x0a, 0x00, 0x00, 0xb8, 0x00, 0x00, 0x00, 0x01, 0x00, 0x00, 0x00,
  0x10, 0x00, 0x00, 0x00, 0x00, 0x00, 0x0a, 0x00, 0x10, 0x00, 0x0c, 0x00,
  0x08, 0x00, 0x04, 0x00, 0x0a, 0x00, 0x00, 0x00, 0x0c, 0x00, 0x00, 0x00,
  0x1c, 0x00, 0x00, 0x00, 0x20, 0x00, 0x00, 0x00, 0x0f, 0x00, 0x00, 0x00,
  0x73, 0x65, 0x72, 0x76, 0x69, 0x6e, 0x67, 0x5f, 0x64, 0x65, 0x66, 0x61,
  0x75, 0x6c, 0x74, 0x00, 0x01, 0x00, 0x00, 0x00, 0x14, 0x00, 0x00, 0x00,
  0x01, 0x00, 0x00, 0x00, 0x24, 0x00, 0x00, 0x00, 0x08, 0x00, 0x0c, 0x00,
  0x08, 0x00, 0x04, 0x00, 0x08, 0x00, 0x00, 0x00, 0x09, 0x00, 0x00, 0x00,
  0x04, 0x00, 0x00, 0x00, 0x07, 0x00, 0x00, 0x00, 0x64, 0x65, 0x6e, 0x73,
  0x65, 0x5f, 0x32, 0x00, 0x5e, 0xf6, 0xff, 0xff, 0x04, 0x00, 0x00, 0x00,
  0x0b, 0x00, 0x00, 0x00, 0x64, 0x65, 0x6e, 0x73, 0x65, 0x5f, 0x69, 0x6e,
  0x70, 0x75, 0x74, 0x00, 0x01, 0x00, 0x00, 0x00, 0x0c, 0x00, 0x00, 0x00,
  0x08, 0x00, 0x0c, 0x00, 0x04, 0x00, 0x08, 0x00, 0x08, 0x00, 0x00, 0x00,
  0x08, 0x00, 0x00, 0x00, 0x0b, 0x00, 0x00, 0x00, 0x13, 0x00, 0x00, 0x00,
  0x6d, 0x69, 0x6e, 0x5f, 0x72, 0x75, 0x6e, 0x74, 0x69, 0x6d, 0x65, 0x5f,
  0x76, 0x65, 0x72, 0x73, 0x69, 0x6f, 0x6e, 0x00, 0xaa, 0xf6, 0xff, 0xff,
  0x04, 0x00, 0x00, 0x00, 0x10, 0x00, 0x00, 0x00, 0x31, 0x2e, 0x35, 0x2e,
  0x30, 0x00, 0x00, 0x00, 0x00, 0x00, 0x00, 0x00, 0x00, 0x00, 0x00, 0x00,
  0x0f, 0x00, 0x00, 0x00, 0x4d, 0x4c, 0x49, 0x52, 0x20, 0x43, 0x6f, 0x6e,
  0x76, 0x65, 0x72, 0x74, 0x65, 0x64, 0x2e, 0x00, 0x00, 0x00, 0x0e, 0x00,
  0x18, 0x00, 0x04, 0x00, 0x08, 0x00, 0x0c, 0x00, 0x10, 0x00, 0x14, 0x00,
  0x0e, 0x00, 0x00, 0x00, 0x14, 0x00, 0x00, 0x00, 0x3c, 0x00, 0x00, 0x00,
  0x40, 0x00, 0x00, 0x00, 0x44, 0x00, 0x00, 0x00, 0x50, 0x00, 0x00, 0x00,
  0x0a, 0x00, 0x00, 0x00, 0x68, 0x09, 0x00, 0x00, 0x1c, 0x09, 0x00, 0x00,
  0xb8, 0x08, 0x00, 0x00, 0x38, 0x08, 0x00, 0x00, 0xa8, 0x07, 0x00, 0x00,
  0x14, 0x07, 0x00, 0x00, 0xc0, 0x02, 0x00, 0x00, 0xf0, 0x01, 0x00, 0x00,
  0xfc, 0x00, 0x00, 0x00, 0x60, 0x00, 0x00, 0x00, 0x01, 0x00, 0x00, 0x00,
  0x00, 0x00, 0x00, 0x00, 0x01, 0x00, 0x00, 0x00, 0x09, 0x00, 0x00, 0x00,
  0x03, 0x00, 0x00, 0x00, 0x78, 0x01, 0x00, 0x00, 0xa8, 0x00, 0x00, 0x00,
  0x10, 0x00, 0x00, 0x00, 0x04, 0x00, 0x00, 0x00, 0x6d, 0x61, 0x69, 0x6e,
  0x00, 0x00, 0x00, 0x00, 0x7a, 0xff, 0xff, 0xff, 0x00, 0x00, 0x00, 0x08,
  0x18, 0x00, 0x00, 0x00, 0x0c, 0x00, 0x00, 0x00, 0x04, 0x00, 0x00, 0x00,
  0xa8, 0xf6, 0xff, 0xff, 0x01, 0x00, 0x00, 0x00, 0x09, 0x00, 0x00, 0x00,
  0x03, 0x00, 0x00, 0x00, 0x08, 0x00, 0x00, 0x00, 0x06, 0x00, 0x00, 0x00,
  0x01, 0x00, 0x00, 0x00, 0x30, 0xf7, 0xff, 0xff, 0x14, 0x00, 0x00, 0x00,
  0x0a, 0x00, 0x00, 0x00, 0x18, 0x00, 0x00, 0x00, 0x40, 0x00, 0x00, 0x00,
  0x30, 0x00, 0x00, 0x00, 0x02, 0x00, 0x00, 0x00, 0x01, 0x00, 0x00, 0x00,
  0x01, 0x00, 0x00, 0x00, 0x19, 0x00, 0x00, 0x00, 0x53, 0x74, 0x61, 0x74,
  0x65, 0x66, 0x75, 0x6c, 0x50, 0x61, 0x72, 0x74, 0x69, 0x74, 0x69, 0x6f,
  0x6e, 0x65, 0x64, 0x43, 0x61, 0x6c, 0x6c, 0x3a, 0x30, 0x00, 0x00, 0x00,
  0x02, 0x00, 0x00, 0x00, 0xff, 0xff, 0xff, 0xff, 0x01, 0x00, 0x00, 0x00,
  0xe4, 0xf7, 0xff, 0xff, 0x00, 0x00, 0x0e, 0x00, 0x14, 0x00, 0x00, 0x00,
  0x08, 0x00, 0x0c, 0x00, 0x07, 0x00, 0x10, 0x00, 0x0e, 0x00, 0x00, 0x00,
  0x00, 0x00, 0x00, 0x08, 0x1c, 0x00, 0x00, 0x00, 0x10, 0x00, 0x00, 0x00,
  0x04, 0x00, 0x00, 0x00, 0x32, 0xff, 0xff, 0xff, 0x00, 0x00, 0x00, 0x01,
  0x01, 0x00, 0x00, 0x00, 0x08, 0x00, 0x00, 0x00, 0x03, 0x00, 0x00, 0x00,
  0x07, 0x00, 0x00, 0x00, 0x05, 0x00, 0x00, 0x00, 0x02, 0x00, 0x00, 0x00,
  0xc8, 0xf7, 0xff, 0xff, 0x14, 0x00, 0x00, 0x00, 0x09, 0x00, 0x00, 0x00,
  0x18, 0x00, 0x00, 0x00, 0x74, 0x00, 0x00, 0x00, 0x64, 0x00, 0x00, 0x00,
  0x02, 0x00, 0x00, 0x00, 0x01, 0x00, 0x00, 0x00, 0x10, 0x00, 0x00, 0x00,
  0x4c, 0x00, 0x00, 0x00, 0x73, 0x65, 0x71, 0x75, 0x65, 0x6e, 0x74, 0x69,
  0x61, 0x6c, 0x2f, 0x64, 0x65, 0x6e, 0x73, 0x65, 0x5f, 0x31, 0x2f, 0x4d,
  0x61, 0x74, 0x4d, 0x75, 0x6c, 0x3b, 0x73, 0x65, 0x71, 0x75, 0x65, 0x6e,
  0x74, 0x69, 0x61, 0x6c, 0x2f, 0x64, 0x65, 0x6e, 0x73, 0x65, 0x5f, 0x31,
  0x2f, 0x52, 0x65, 0x6c, 0x75, 0x3b, 0x73, 0x65, 0x71, 0x75, 0x65, 0x6e,
  0x74, 0x69, 0x61, 0x6c, 0x2f, 0x64, 0x65, 0x6e, 0x73, 0x65, 0x5f, 0x31,
  0x2f, 0x42, 0x69, 0x61, 0x73, 0x41, 0x64, 0x64, 0x00, 0x00, 0x00, 0x00,
  0x02, 0x00, 0x00, 0x00, 0xff, 0xff, 0xff, 0xff, 0x10, 0x00, 0x00, 0x00,
  0xb0, 0xf8, 0xff, 0xff, 0x00, 0x00, 0x0e, 0x00, 0x16, 0x00, 0x00, 0x00,
  0x08, 0x00, 0x0c, 0x00, 0x07, 0x00, 0x10, 0x00, 0x0e, 0x00, 0x00, 0x00,
  0x00, 0x00, 0x00, 0x08, 0x24, 0x00, 0x00, 0x00, 0x18, 0x00, 0x00, 0x00,
  0x0c, 0x00, 0x00, 0x00, 0x00, 0x00, 0x06, 0x00, 0x08, 0x00, 0x07, 0x00,
  0x06, 0x00, 0x00, 0x00, 0x00, 0x00, 0x00, 0x01, 0x01, 0x00, 0x00, 0x00,
  0x07, 0x00, 0x00, 0x00, 0x03, 0x00, 0x00, 0x00, 0x00, 0x00, 0x00, 0x00,
  0x04, 0x00, 0x00, 0x00, 0x03, 0x00, 0x00, 0x00, 0x0c, 0x00, 0x10, 0x00,
  0x0b, 0x00, 0x00, 0x00, 0x0c, 0x00, 0x04, 0x00, 0x0c, 0x00, 0x00, 0x00,
  0x09, 0x00, 0x00, 0x00, 0x00, 0x00, 0x00, 0x09, 0x01, 0x00, 0x00, 0x00,
  0xb8, 0xf8, 0xff, 0xff, 0x14, 0x00, 0x00, 0x00, 0x08, 0x00, 0x00, 0x00,
  0x18, 0x00, 0x00, 0x00, 0x6c, 0x00, 0x00, 0x00, 0x5c, 0x00, 0x00, 0x00,
  0x02, 0x00, 0x00, 0x00, 0x01, 0x00, 0x00, 0x00, 0x10, 0x00, 0x00, 0x00,
  0x46, 0x00, 0x00, 0x00, 0x73, 0x65, 0x71, 0x75, 0x65, 0x6e, 0x74, 0x69,
  0x61, 0x6c, 0x2f, 0x64, 0x65, 0x6e, 0x73, 0x65, 0x2f, 0x4d, 0x61, 0x74,
  0x4d, 0x75, 0x6c, 0x3b, 0x73, 0x65, 0x71, 0x75, 0x65, 0x6e, 0x74, 0x69,
  0x61, 0x6c, 0x2f, 0x64, 0x65, 0x6e, 0x73, 0x65, 0x2f, 0x52, 0x65, 0x6c,
  0x75, 0x3b, 0x73, 0x65, 0x71, 0x75, 0x65, 0x6e, 0x74, 0x69, 0x61, 0x6c,
  0x2f, 0x64, 0x65, 0x6e, 0x73, 0x65, 0x2f, 0x42, 0x69, 0x61, 0x73, 0x41,
  0x64, 0x64, 0x00, 0x00, 0x02, 0x00, 0x00, 0x00, 0xff, 0xff, 0xff, 0xff,
  0x10, 0x00, 0x00, 0x00, 0xc8, 0xf8, 0xff, 0xff, 0x92, 0xf9, 0xff, 0xff,
  0x04, 0x00, 0x00, 0x00, 0x40, 0x00, 0x00, 0x00, 0x97, 0xcc, 0x3f, 0xbe,
  0xb9, 0x21, 0xc5, 0x3e, 0xfe, 0x3a, 0xf9, 0x3e, 0xc9, 0x0b, 0x24, 0x3e,
  0xd2, 0x74, 0x81, 0x3e, 0x54, 0x87, 0x20, 0x3e, 0xef, 0x26, 0xe7, 0xbe,
  0x53, 0xee, 0x9f, 0x3e, 0x50, 0xe5, 0x1e, 0xbf, 0xa0, 0xf5, 0xdb, 0xbe,
  0xe4, 0x13, 0xcb, 0xbe, 0xab, 0x86, 0xd6, 0x3e, 0x9c, 0x80, 0x0a, 0xbf,
  0x53, 0xeb, 0xdc, 0xbe, 0xd0, 0x18, 0x2c, 0xbf, 0xa2, 0xa0, 0x16, 0xbf,
  0xc6, 0xf9, 0xff, 0xff, 0x10, 0x00, 0x00, 0x00, 0x07, 0x00, 0x00, 0x00,
  0x14, 0x00, 0x00, 0x00, 0x30, 0x00, 0x00, 0x00, 0x02, 0x00, 0x00, 0x00,
  0x01, 0x00, 0x00, 0x00, 0x10, 0x00, 0x00, 0x00, 0x19, 0x00, 0x00, 0x00,
  0x73, 0x65, 0x71, 0x75, 0x65, 0x6e, 0x74, 0x69, 0x61, 0x6c, 0x2f, 0x64,
  0x65, 0x6e, 0x73, 0x65, 0x5f, 0x32, 0x2f, 0x4d, 0x61, 0x74, 0x4d, 0x75,
  0x6c, 0x00, 0x00, 0x00, 0x58, 0xf9, 0xff, 0xff, 0x22, 0xfa, 0xff, 0xff,
  0x04, 0x00, 0x00, 0x00, 0x00, 0x04, 0x00, 0x00, 0xec, 0xbd, 0x87, 0x3e,
  0xb5, 0xf3, 0xc9, 0x3d, 0x67, 0x03, 0xda, 0x3e, 0xb8, 0xc9, 0x96, 0x3e,
  0x3a, 0xb2, 0x99, 0xbe, 0xb5, 0xcf, 0xa0, 0x3e, 0x0d, 0x0a, 0xb9, 0xbe,
  0x72, 0x62, 0x48, 0xbe, 0xab, 0x92, 0xe1, 0x3e, 0x2b, 0x3c, 0x4a, 0x3e,
  0x50, 0x59, 0x1a, 0xbf, 0xf4, 0x6c, 0xab, 0x3e, 0x85, 0x17, 0xb8, 0xbe,
  0x28, 0x0f, 0x8e, 0x3e, 0x93, 0xed, 0xa3, 0xbd, 0x20, 0x4b, 0x18, 0x3c,
  0x5f, 0x1e, 0xcb, 0x3e, 0x39, 0xdb, 0x96, 0x3d, 0x0d, 0x94, 0xca, 0x3e,
  0x33, 0xaf, 0x22, 0xbd, 0x82, 0xce, 0x6e, 0x3d, 0xe9, 0x7c, 0x76, 0xbe,
  0x23, 0xce, 0xa2, 0x3d, 0xcc, 0xe7, 0xd4, 0xbe, 0x7e, 0x10, 0x83, 0x3e,
  0xd1, 0xc0, 0xb7, 0xbe, 0x55, 0xd4, 0x89, 0x3e, 0x5f, 0x6c, 0xf8, 0xbe,
  0x53, 0x70, 0x9e, 0x3e, 0xf0, 0x57, 0xe2, 0x3d, 0xcf, 0x39, 0x8b, 0xbe,
  0x12, 0x3d, 0x37, 0x3e, 0x98, 0xda, 0xbe, 0x3e, 0x06, 0x11, 0xcb, 0xbe,
  0xbe, 0x66, 0x01, 0x3e, 0x1d, 0x86, 0x6a, 0x3d, 0x31, 0xd6, 0xad, 0x3e,
  0x19, 0x59, 0xbc, 0x3e, 0xd5, 0x9b, 0xa6, 0x3e, 0xe0, 0x40, 0xd1, 0xbc,
  0x9d, 0xbf, 0x32, 0x3e, 0x4f, 0x4b, 0x7a, 0xbd, 0x19, 0x0c, 0x45, 0xbe,
  0x0a, 0x5a, 0x80, 0xbe, 0xad, 0x4a, 0xd1, 0x3e, 0x27, 0x3d, 0x8c, 0xbd,
  0x0d, 0xf3, 0xa9, 0x3e, 0xdc, 0x7d, 0xb4, 0xbd, 0x88, 0xa3, 0x48, 0x3c,
  0x8f, 0x04, 0x31, 0xbe, 0xbe, 0xfc, 0xab, 0xbe, 0xd1, 0xf6, 0x3e, 0xbe,
  0x0b, 0x0e, 0x00, 0x3e, 0x57, 0x3b, 0x8a, 0x3e, 0x4e, 0xcd, 0xde, 0x3d,
  0x9c, 0xc2, 0x03, 0xbe, 0x6f, 0x1a, 0xc4, 0x3e, 0xac, 0xa0, 0x21, 0xbe,
  0x9d, 0x85, 0xad, 0x3e, 0x7f, 0x1a, 0x40, 0x3e, 0xf0, 0x91, 0x2e, 0x3d,
  0xf5, 0x9a, 0x65, 0x3e, 0xd0, 0x54, 0x9b, 0x3e, 0x30, 0x56, 0xdc, 0xbd,
  0x8a, 0x0c, 0x2c, 0x3e, 0x00, 0xf7, 0x06, 0x3c, 0xb0, 0xaf, 0x49, 0xbd,
  0xed, 0xf5, 0x87, 0xbe, 0x00, 0x27, 0x5a, 0xbc, 0x5e, 0x39, 0x5f, 0x3e,
  0x5a, 0x70, 0x93, 0xbe, 0x12, 0xb0, 0x61, 0xbe, 0x3f, 0x85, 0xca, 0xbe,
  0x30, 0xb1, 0x77, 0xbe, 0xf7, 0x4c, 0xb7, 0x3e, 0x34, 0x7a, 0xbb, 0x3d,
  0x0a, 0x12, 0x2f, 0x3e, 0x16, 0xad, 0x3b, 0x3e, 0x17, 0x6f, 0xd1, 0xbe,
  0x70, 0xe1, 0xad, 0xbd, 0x3b, 0x46, 0xab, 0x3e, 0x94, 0x96, 0xca, 0xbd,
  0x73, 0xfd, 0xd8, 0x3e, 0x00, 0x76, 0x73, 0xbd, 0x0f, 0x21, 0x96, 0x3e,
  0xdf, 0x7b, 0xd5, 0xbe, 0xcf, 0xfc, 0xb5, 0xbe, 0xab, 0x66, 0xc8, 0xbe,
  0x36, 0x43, 0x32, 0xbe, 0xe8, 0xb4, 0x8c, 0xbe, 0x5c, 0xee, 0xb3, 0xbe,
  0xea, 0x1f, 0x04, 0x3e, 0x43, 0x09, 0x53, 0xbe, 0xbd, 0xa5, 0xa1, 0xbe,
  0xa0, 0x9f, 0xd0, 0xbe, 0xd9, 0xcb, 0x46, 0xbe, 0x3c, 0xf1, 0xe4, 0x3d,
  0x5c, 0x39, 0x81, 0xbe, 0xeb, 0xe8, 0x66, 0xbe, 0x30, 0x79, 0xb1, 0xbc,
  0x2d, 0x90, 0xa7, 0x3e, 0x40, 0x68, 0xe4, 0x3b, 0x4c, 0x6d, 0x45, 0xbe,
  0x60, 0xae, 0x6e, 0xbc, 0x6e, 0xdc, 0xdc, 0xbe, 0x54, 0xb8, 0x02, 0xbe,
  0xa6, 0x32, 0x25, 0xbe, 0x60, 0x1f, 0x61, 0x3c, 0x1c, 0x2e, 0xec, 0x3d,
  0xb6, 0x3b, 0x59, 0x3e, 0xb2, 0x4f, 0x86, 0xbe, 0x50, 0x3d, 0x5f, 0xbe,
  0x03, 0x63, 0x0a, 0xbd, 0x1a, 0x20, 0x74, 0xbe, 0xb0, 0x89, 0x55, 0xbd,
  0x3f, 0x3f, 0x34, 0x3e, 0xb0, 0x37, 0x68, 0x3e, 0x64, 0x02, 0xfc, 0x3d,
  0x20, 0x5b, 0xcc, 0x3e, 0x1a, 0x36, 0x0c, 0xbe, 0x2c, 0x37, 0xc9, 0xbc,
  0x78, 0xe6, 0x4a, 0x3e, 0xe0, 0x7b, 0xa1, 0x3e, 0x15, 0x1d, 0x8c, 0x3e,
  0xfe, 0x36, 0x6e, 0x3e, 0x13, 0xfe, 0xb5, 0x3d, 0x8d, 0x42, 0x40, 0xbe,
  0xca, 0x0b, 0x65, 0x3e, 0x8d, 0x48, 0x78, 0xbe, 0x1e, 0xdd, 0xdd, 0xbd,
  0x7f, 0x35, 0xa2, 0x3e, 0x35, 0x76, 0xb0, 0x3d, 0x03, 0x89, 0xe1, 0x3e,
  0xf3, 0x36, 0x7d, 0xbe, 0xff, 0x34, 0xd1, 0xbe, 0xce, 0xfc, 0x77, 0x3e,
  0x69, 0xdb, 0x74, 0x3d, 0xd6, 0xc3, 0x03, 0xbf, 0xbf, 0xdc, 0x2a, 0x3f,
  0x5d, 0xf8, 0x87, 0xbf, 0x2a, 0x7f, 0x7c, 0x3e, 0x5e, 0x2e, 0x1a, 0xbf,
  0x58, 0x4a, 0x02, 0x3f, 0xbe, 0x8b, 0x0b, 0x3e, 0x57, 0xb6, 0x45, 0xbe,
  0x4c, 0xdf, 0xfc, 0x3d, 0xa4, 0x00, 0xa7, 0xbe, 0x22, 0x5d, 0xbf, 0xbe,
  0xfc, 0x74, 0xd0, 0xbe, 0xa0, 0x26, 0x29, 0xbc, 0x32, 0xad, 0x2e, 0xbe,
  0xa4, 0x08, 0xfa, 0xbd, 0x5a, 0xfe, 0x04, 0x3e, 0xac, 0xcc, 0x65, 0xbe,
  0x38, 0x94, 0x83, 0x3d, 0x00, 0x3d, 0x41, 0xbb, 0xc7, 0x87, 0xda, 0x3e,
  0xfa, 0x2a, 0x09, 0x3e, 0xfc, 0xaf, 0xd8, 0xbe, 0x5c, 0xcb, 0xb6, 0xbd,
  0xd7, 0x55, 0x5e, 0xbe, 0xf3, 0x44, 0xbe, 0xbe, 0x17, 0x0f, 0xc0, 0xbe,
  0x40, 0x24, 0x12, 0xbc, 0x6f, 0xe3, 0x90, 0xbe, 0xb0, 0x85, 0x86, 0xbe,
  0x10, 0xb8, 0x5d, 0x3d, 0xbd, 0x17, 0x6a, 0xbe, 0xce, 0xab, 0x11, 0x3e,
  0x5a, 0xe8, 0x04, 0xbe, 0x45, 0xb1, 0xdd, 0xbe, 0x03, 0x44, 0xb5, 0x3e,
  0x40, 0x46, 0xa2, 0x3b, 0xc4, 0x5b, 0xbc, 0x3d, 0xa8, 0x96, 0x09, 0x3d,
  0xb7, 0x50, 0x9e, 0xbe, 0x45, 0x93, 0x3d, 0x3e, 0x6a, 0x13, 0x07, 0xbe,
  0x8d, 0x64, 0xce, 0x3e, 0x4f, 0xbf, 0x71, 0xbe, 0x1c, 0xfd, 0x62, 0xbe,
  0x3b, 0x9c, 0x95, 0xbe, 0xc8, 0x77, 0xbd, 0x3e, 0xbc, 0xcb, 0xa2, 0x3d,
  0x9c, 0x76, 0x62, 0x3e, 0x29, 0xf7, 0xf9, 0xbd, 0x92, 0x84, 0xf8, 0x3e,
  0x5c, 0xd4, 0xb3, 0x3e, 0xf4, 0x00, 0xc1, 0x3d, 0x54, 0xcf, 0xbc, 0xbe,
  0xe8, 0x06, 0xc9, 0x3e, 0xa6, 0xc4, 0x46, 0xbe, 0x7b, 0xb1, 0xd9, 0xbe,
  0x8a, 0x64, 0xe1, 0x3d, 0xda, 0xa4, 0x1c, 0x3e, 0x9f, 0xd8, 0xfc, 0x3e,
  0x5f, 0x82, 0x2a, 0x3e, 0x6c, 0x79, 0xda, 0xbe, 0x1e, 0xb8, 0x79, 0x3e,
  0x6d, 0x99, 0xd0, 0x3e, 0x05, 0x9e, 0x83, 0x3e, 0x9d, 0xf5, 0x4a, 0xbc,
  0x21, 0x1e, 0xae, 0xbe, 0x62, 0x94, 0x8b, 0x3e, 0x6a, 0x89, 0x87, 0xbe,
  0x05, 0x05, 0x3f, 0x3e, 0x4f, 0x30, 0x14, 0xbf, 0xc7, 0xb8, 0xc8, 0x3e,
  0x2d, 0xf1, 0xd8, 0x3d, 0x04, 0x9b, 0xb0, 0x3e, 0x8a, 0x2d, 0x97, 0xbe,
  0x0d, 0x92, 0xc2, 0x3d, 0x02, 0xeb, 0xb8, 0xbe, 0xa1, 0x98, 0xbe, 0xbe,
  0x16, 0x34, 0x3c, 0x3e, 0x40, 0xe3, 0x4c, 0xbc, 0x9b, 0x5a, 0xff, 0x3b,
  0x46, 0x94, 0xba, 0xbe, 0x31, 0xe6, 0x03, 0xbe, 0xaf, 0xf6, 0x1f, 0x3e,
  0xd6, 0xc7, 0x29, 0xbe, 0x69, 0x66, 0xc7, 0x3e, 0x83, 0xfc, 0x78, 0x3e,
  0xb5, 0x85, 0xa6, 0xbe, 0x29, 0xdb, 0x98, 0x3e, 0xa6, 0x90, 0x98, 0xbe,
  0x58, 0xda, 0x32, 0xbd, 0x00, 0x0a, 0xef, 0xbe, 0xed, 0xc9, 0xab, 0x3e,
  0xb0, 0xd8, 0x59, 0x3d, 0x12, 0xd7, 0x04, 0xbf, 0x7a, 0x26, 0x30, 0x3e,
  0x41, 0xbb, 0xf1, 0xbe, 0x53, 0x08, 0x54, 0xbe, 0x52, 0x35, 0x05, 0x3d,
  0xe3, 0x20, 0xea, 0xbd, 0x07, 0x94, 0x48, 0xbe, 0x39, 0xad, 0xb0, 0xbe,
  0x95, 0xc6, 0x84, 0x3e, 0xd8, 0x46, 0x07, 0xbd, 0xd0, 0x11, 0x95, 0xbe,
  0xdc, 0x36, 0x01, 0x3e, 0x3e, 0x2c, 0x51, 0x3e, 0x4e, 0xb3, 0x5a, 0xbe,
  0xc8, 0xda, 0xee, 0xbd, 0x46, 0xdf, 0x4d, 0xbe, 0x1a, 0x06, 0x48, 0x3e,
  0xb5, 0x15, 0xb1, 0x3e, 0xc7, 0x20, 0x40, 0xbe, 0x14, 0x6c, 0x9d, 0x3e,
  0xdd, 0xe4, 0x9c, 0xbe, 0xa3, 0x73, 0xa6, 0x3c, 0x4a, 0xcc, 0xc8, 0xbe,
  0x7c, 0xba, 0xcb, 0x3e, 0x19, 0x19, 0x19, 0x3d, 0xd6, 0xc3, 0xce, 0xbe,
  0x16, 0xfe, 0xff, 0xff, 0x10, 0x00, 0x00, 0x00, 0x06, 0x00, 0x00, 0x00,
  0x14, 0x00, 0x00, 0x00, 0x30, 0x00, 0x00, 0x00, 0x02, 0x00, 0x00, 0x00,
  0x10, 0x00, 0x00, 0x00, 0x10, 0x00, 0x00, 0x00, 0x19, 0x00, 0x00, 0x00,
  0x73, 0x65, 0x71, 0x75, 0x65, 0x6e, 0x74, 0x69, 0x61, 0x6c, 0x2f, 0x64,
  0x65, 0x6e, 0x73, 0x65, 0x5f, 0x31, 0x2f, 0x4d, 0x61, 0x74, 0x4d, 0x75,
  0x6c, 0x00, 0x00, 0x00, 0xa8, 0xfd, 0xff, 0xff, 0x72, 0xfe, 0xff, 0xff,
  0x04, 0x00, 0x00, 0x00, 0x40, 0x00, 0x00, 0x00, 0x01, 0xf9, 0x90, 0x3d,
  0x4e, 0xd9, 0x01, 0x3f, 0x38, 0x43, 0xc9, 0xbe, 0x6a, 0xb9, 0x26, 0x3e,
  0xc6, 0x21, 0xaf, 0x3d, 0x42, 0x10, 0xaa, 0xbe, 0x14, 0xc2, 0x04, 0x3f,
  0xc0, 0xaa, 0xcc, 0xbd, 0xc7, 0x32, 0xf9, 0x3e, 0xe3, 0x00, 0xaf, 0x3e,
  0x31, 0xb4, 0xb0, 0xbc, 0x44, 0x4c, 0x5a, 0x3e, 0x1e, 0x86, 0xc3, 0xbe,
  0x31, 0x96, 0xdc, 0x3e, 0x3b, 0xb7, 0x2f, 0x3c, 0xb2, 0xc5, 0x7f, 0xbe,
  0xa6, 0xfe, 0xff, 0xff, 0x10, 0x00, 0x00, 0x00, 0x05, 0x00, 0x00, 0x00,
  0x14, 0x00, 0x00, 0x00, 0x2c, 0x00, 0x00, 0x00, 0x02, 0x00, 0x00, 0x00,
  0x10, 0x00, 0x00, 0x00, 0x01, 0x00, 0x00, 0x00, 0x17, 0x00, 0x00, 0x00,
  0x73, 0x65, 0x71, 0x75, 0x65, 0x6e, 0x74, 0x69, 0x61, 0x6c, 0x2f, 0x64,
  0x65, 0x6e, 0x73, 0x65, 0x2f, 0x4d, 0x61, 0x74, 0x4d, 0x75, 0x6c, 0x00,
  0x34, 0xfe, 0xff, 0xff, 0xfe, 0xfe, 0xff, 0xff, 0x04, 0x00, 0x00, 0x00,
  0x40, 0x00, 0x00, 0x00, 0x14, 0xe6, 0x31, 0x3e, 0x61, 0x09, 0x85, 0xbe,
  0x00, 0x00, 0x00, 0x00, 0x65, 0x1f, 0x7d, 0xbe, 0x72, 0x4c, 0x6c, 0x3e,
  0x00, 0x00, 0x00, 0x00, 0x48, 0x0c, 0x9d, 0xbb, 0x00, 0x00, 0x00, 0x00,
  0xcf, 0xa3, 0x00, 0x3d, 0x68, 0x65, 0x12, 0xbe, 0x2e, 0x17, 0x5c, 0x3e,
  0xbd, 0x27, 0x66, 0xbe, 0x00, 0x00, 0x00, 0x00, 0x5b, 0xa5, 0x38, 0xbe,
  0x43, 0xd3, 0x86, 0x3e, 0x00, 0x00, 0x00, 0x00, 0x32, 0xff, 0xff, 0xff,
  0x10, 0x00, 0x00, 0x00, 0x04, 0x00, 0x00, 0x00, 0x10, 0x00, 0x00, 0x00,
  0x1c, 0x00, 0x00, 0x00, 0x01, 0x00, 0x00, 0x00, 0x10, 0x00, 0x00, 0x00,
  0x0a, 0x00, 0x00, 0x00, 0x64, 0x65, 0x6e, 0x73, 0x65, 0x2f, 0x62, 0x69,
  0x61, 0x73, 0x00, 0x00, 0xb0, 0xfe, 0xff, 0xff, 0x7a, 0xff, 0xff, 0xff,
  0x04, 0x00, 0x00, 0x00, 0x40, 0x00, 0x00, 0x00, 0x5d, 0x97, 0x39, 0xbe,
  0xc3, 0xa6, 0x01, 0x3e, 0x6d, 0x52, 0x02, 0x3e, 0xda, 0xf4, 0xf9, 0x3d,
  0x00, 0x00, 0x00, 0x00, 0x00, 0x00, 0x00, 0x00, 0x00, 0x00, 0x00, 0x00,
  0xa1, 0xb5, 0xff, 0x3d, 0x33, 0x0e, 0x7a, 0x3e, 0x00, 0x00, 0x00, 0x00,
  0x00, 0x00, 0x00, 0x00, 0xae, 0xd8, 0x01, 0x3e, 0x73, 0xb6, 0x8a, 0xbe,
  0x2c, 0x0c, 0x80, 0xbe, 0x96, 0x92, 0x1e, 0x3e, 0xd2, 0x1e, 0x56, 0xbe,
  0xae, 0xff, 0xff, 0xff, 0x10, 0x00, 0x00, 0x00, 0x03, 0x00, 0x00, 0x00,
  0x10, 0x00, 0x00, 0x00, 0x24, 0x00, 0x00, 0x00, 0x01, 0x00, 0x00, 0x00,
  0x10, 0x00, 0x00, 0x00, 0x0c, 0x00, 0x00, 0x00, 0x64, 0x65, 0x6e, 0x73,
  0x65, 0x5f, 0x31, 0x2f, 0x62, 0x69, 0x61, 0x73, 0x00, 0x00, 0x00, 0x00,
  0x04, 0x00, 0x06, 0x00, 0x04, 0x00, 0x00, 0x00, 0x00, 0x00, 0x06, 0x00,
  0x08, 0x00, 0x04, 0x00, 0x06, 0x00, 0x00, 0x00, 0x04, 0x00, 0x00, 0x00,
  0x04, 0x00, 0x00, 0x00, 0x4e, 0xb1, 0x03, 0x3e, 0x00, 0x00, 0x0e, 0x00,
  0x14, 0x00, 0x04, 0x00, 0x00, 0x00, 0x08, 0x00, 0x0c, 0x00, 0x10, 0x00,
  0x0e, 0x00, 0x00, 0x00, 0x10, 0x00, 0x00, 0x00, 0x02, 0x00, 0x00, 0x00,
  0x10, 0x00, 0x00, 0x00, 0x20, 0x00, 0x00, 0x00, 0x01, 0x00, 0x00, 0x00,
  0x01, 0x00, 0x00, 0x00, 0x0c, 0x00, 0x00, 0x00, 0x64, 0x65, 0x6e, 0x73,
  0x65, 0x5f, 0x32, 0x2f, 0x62, 0x69, 0x61, 0x73, 0x00, 0x00, 0x00, 0x00,
  0x90, 0xff, 0xff, 0xff, 0x14, 0x00, 0x18, 0x00, 0x04, 0x00, 0x00, 0x00,
  0x08, 0x00, 0x0c, 0x00, 0x10, 0x00, 0x00, 0x00, 0x00, 0x00, 0x14, 0x00,
  0x14, 0x00, 0x00, 0x00, 0x14, 0x00, 0x00, 0x00, 0x01, 0x00, 0x00, 0x00,
  0x18, 0x00, 0x00, 0x00, 0x44, 0x00, 0x00, 0x00, 0x34, 0x00, 0x00, 0x00,
  0x02, 0x00, 0x00, 0x00, 0x01, 0x00, 0x00, 0x00, 0x01, 0x00, 0x00, 0x00,
  0x1d, 0x00, 0x00, 0x00, 0x73, 0x65, 0x72, 0x76, 0x69, 0x6e, 0x67, 0x5f,
  0x64, 0x65, 0x66, 0x61, 0x75, 0x6c, 0x74, 0x5f, 0x64, 0x65, 0x6e, 0x73,
  0x65, 0x5f, 0x69, 0x6e, 0x70, 0x75, 0x74, 0x3a, 0x30, 0x00, 0x00, 0x00,
  0x02, 0x00, 0x00, 0x00, 0xff, 0xff, 0xff, 0xff, 0x01, 0x00, 0x00, 0x00,
  0xfc, 0xff, 0xff, 0xff, 0x04, 0x00, 0x04, 0x00, 0x04, 0x00, 0x00, 0x00
 
};
//self generated from google colab using 4 layers tflite_sinewave_training_addLayer.ipynb
const unsigned int sine_model_len4 = 4352;
const unsigned char sine_model4[] DATA_ALIGN_ATTRIBUTE = {
 0x1c, 0x00, 0x00, 0x00, 0x54, 0x46, 0x4c, 0x33, 0x14, 0x00, 0x20, 0x00,
  0x04, 0x00, 0x08, 0x00, 0x0c, 0x00, 0x10, 0x00, 0x14, 0x00, 0x00, 0x00,
  0x18, 0x00, 0x1c, 0x00, 0x14, 0x00, 0x00, 0x00, 0x03, 0x00, 0x00, 0x00,
  0x18, 0x00, 0x00, 0x00, 0x1c, 0x00, 0x00, 0x00, 0x30, 0x01, 0x00, 0x00,
  0x1c, 0x00, 0x00, 0x00, 0xd8, 0x00, 0x00, 0x00, 0x54, 0x00, 0x00, 0x00,
  0x01, 0x00, 0x00, 0x00, 0x24, 0x04, 0x00, 0x00, 0x01, 0x00, 0x00, 0x00,
  0x38, 0x01, 0x00, 0x00, 0x0f, 0x00, 0x00, 0x00, 0xac, 0x10, 0x00, 0x00,
  0xa8, 0x10, 0x00, 0x00, 0xe0, 0x0f, 0x00, 0x00, 0x50, 0x0f, 0x00, 0x00,
  0xcc, 0x0e, 0x00, 0x00, 0x4c, 0x0e, 0x00, 0x00, 0xbc, 0x0d, 0x00, 0x00,
  0x68, 0x09, 0x00, 0x00, 0x14, 0x05, 0x00, 0x00, 0x80, 0x04, 0x00, 0x00,
  0x84, 0x10, 0x00, 0x00, 0x80, 0x10, 0x00, 0x00, 0x7c, 0x10, 0x00, 0x00,
  0x78, 0x10, 0x00, 0x00, 0xb8, 0x00, 0x00, 0x00, 0x01, 0x00, 0x00, 0x00,
  0x10, 0x00, 0x00, 0x00, 0x00, 0x00, 0x0a, 0x00, 0x10, 0x00, 0x0c, 0x00,
  0x08, 0x00, 0x04, 0x00, 0x0a, 0x00, 0x00, 0x00, 0x0c, 0x00, 0x00, 0x00,
  0x1c, 0x00, 0x00, 0x00, 0x20, 0x00, 0x00, 0x00, 0x0f, 0x00, 0x00, 0x00,
  0x73, 0x65, 0x72, 0x76, 0x69, 0x6e, 0x67, 0x5f, 0x64, 0x65, 0x66, 0x61,
  0x75, 0x6c, 0x74, 0x00, 0x01, 0x00, 0x00, 0x00, 0x14, 0x00, 0x00, 0x00,
  0x01, 0x00, 0x00, 0x00, 0x24, 0x00, 0x00, 0x00, 0x08, 0x00, 0x0c, 0x00,
  0x08, 0x00, 0x04, 0x00, 0x08, 0x00, 0x00, 0x00, 0x0c, 0x00, 0x00, 0x00,
  0x04, 0x00, 0x00, 0x00, 0x07, 0x00, 0x00, 0x00, 0x64, 0x65, 0x6e, 0x73,
  0x65, 0x5f, 0x33, 0x00, 0xc2, 0xf0, 0xff, 0xff, 0x04, 0x00, 0x00, 0x00,
  0x0b, 0x00, 0x00, 0x00, 0x64, 0x65, 0x6e, 0x73, 0x65, 0x5f, 0x69, 0x6e,
  0x70, 0x75, 0x74, 0x00, 0x01, 0x00, 0x00, 0x00, 0x0c, 0x00, 0x00, 0x00,
  0x08, 0x00, 0x0c, 0x00, 0x04, 0x00, 0x08, 0x00, 0x08, 0x00, 0x00, 0x00,
  0x08, 0x00, 0x00, 0x00, 0x0e, 0x00, 0x00, 0x00, 0x13, 0x00, 0x00, 0x00,
  0x6d, 0x69, 0x6e, 0x5f, 0x72, 0x75, 0x6e, 0x74, 0x69, 0x6d, 0x65, 0x5f,
  0x76, 0x65, 0x72, 0x73, 0x69, 0x6f, 0x6e, 0x00, 0x0e, 0xf1, 0xff, 0xff,
  0x04, 0x00, 0x00, 0x00, 0x10, 0x00, 0x00, 0x00, 0x31, 0x2e, 0x35, 0x2e,
  0x30, 0x00, 0x00, 0x00, 0x00, 0x00, 0x00, 0x00, 0x00, 0x00, 0x00, 0x00,
  0x0f, 0x00, 0x00, 0x00, 0x4d, 0x4c, 0x49, 0x52, 0x20, 0x43, 0x6f, 0x6e,
  0x76, 0x65, 0x72, 0x74, 0x65, 0x64, 0x2e, 0x00, 0x00, 0x00, 0x0e, 0x00,
  0x18, 0x00, 0x04, 0x00, 0x08, 0x00, 0x0c, 0x00, 0x10, 0x00, 0x14, 0x00,
  0x0e, 0x00, 0x00, 0x00, 0x14, 0x00, 0x00, 0x00, 0x48, 0x00, 0x00, 0x00,
  0x4c, 0x00, 0x00, 0x00, 0x50, 0x00, 0x00, 0x00, 0x60, 0x00, 0x00, 0x00,
  0x0d, 0x00, 0x00, 0x00, 0x04, 0x0f, 0x00, 0x00, 0xb8, 0x0e, 0x00, 0x00,
  0x54, 0x0e, 0x00, 0x00, 0xd0, 0x0d, 0x00, 0x00, 0x50, 0x0d, 0x00, 0x00,
  0xc0, 0x0c, 0x00, 0x00, 0x2c, 0x0c, 0x00, 0x00, 0xd8, 0x07, 0x00, 0x00,
  0x84, 0x03, 0x00, 0x00, 0xb4, 0x02, 0x00, 0x00, 0xc0, 0x01, 0x00, 0x00,
  0xf0, 0x00, 0x00, 0x00, 0x64, 0x00, 0x00, 0x00, 0x01, 0x00, 0x00, 0x00,
  0x00, 0x00, 0x00, 0x00, 0x01, 0x00, 0x00, 0x00, 0x0c, 0x00, 0x00, 0x00,
  0x04, 0x00, 0x00, 0x00, 0x38, 0x02, 0x00, 0x00, 0x68, 0x01, 0x00, 0x00,
  0x98, 0x00, 0x00, 0x00, 0x10, 0x00, 0x00, 0x00, 0x04, 0x00, 0x00, 0x00,
  0x6d, 0x61, 0x69, 0x6e, 0x00, 0x00, 0x00, 0x00, 0xbe, 0xfe, 0xff, 0xff,
  0x00, 0x00, 0x00, 0x08, 0x18, 0x00, 0x00, 0x00, 0x0c, 0x00, 0x00, 0x00,
  0x04, 0x00, 0x00, 0x00, 0x1c, 0xf1, 0xff, 0xff, 0x01, 0x00, 0x00, 0x00,
  0x0c, 0x00, 0x00, 0x00, 0x03, 0x00, 0x00, 0x00, 0x0b, 0x00, 0x00, 0x00,
  0x08, 0x00, 0x00, 0x00, 0x01, 0x00, 0x00, 0x00, 0xa4, 0xf1, 0xff, 0xff,
  0x14, 0x00, 0x00, 0x00, 0x0d, 0x00, 0x00, 0x00, 0x18, 0x00, 0x00, 0x00,
  0x40, 0x00, 0x00, 0x00, 0x30, 0x00, 0x00, 0x00, 0x02, 0x00, 0x00, 0x00,
  0x01, 0x00, 0x00, 0x00, 0x01, 0x00, 0x00, 0x00, 0x19, 0x00, 0x00, 0x00,
  0x53, 0x74, 0x61, 0x74, 0x65, 0x66, 0x75, 0x6c, 0x50, 0x61, 0x72, 0x74,
  0x69, 0x74, 0x69, 0x6f, 0x6e, 0x65, 0x64, 0x43, 0x61, 0x6c, 0x6c, 0x3a,
  0x30, 0x00, 0x00, 0x00, 0x02, 0x00, 0x00, 0x00, 0xff, 0xff, 0xff, 0xff,
  0x01, 0x00, 0x00, 0x00, 0x88, 0xf1, 0xff, 0xff, 0x42, 0xff, 0xff, 0xff,
  0x00, 0x00, 0x00, 0x08, 0x1c, 0x00, 0x00, 0x00, 0x10, 0x00, 0x00, 0x00,
  0x04, 0x00, 0x00, 0x00, 0x66, 0xfe, 0xff, 0xff, 0x00, 0x00, 0x00, 0x01,
  0x01, 0x00, 0x00, 0x00, 0x0b, 0x00, 0x00, 0x00, 0x03, 0x00, 0x00, 0x00,
  0x0a, 0x00, 0x00, 0x00, 0x07, 0x00, 0x00, 0x00, 0x02, 0x00, 0x00, 0x00,
  0x2c, 0xf2, 0xff, 0xff, 0x14, 0x00, 0x00, 0x00, 0x0c, 0x00, 0x00, 0x00,
  0x18, 0x00, 0x00, 0x00, 0x74, 0x00, 0x00, 0x00, 0x64, 0x00, 0x00, 0x00,
  0x02, 0x00, 0x00, 0x00, 0x01, 0x00, 0x00, 0x00, 0x10, 0x00, 0x00, 0x00,
  0x4c, 0x00, 0x00, 0x00, 0x73, 0x65, 0x71, 0x75, 0x65, 0x6e, 0x74, 0x69,
  0x61, 0x6c, 0x2f, 0x64, 0x65, 0x6e, 0x73, 0x65, 0x5f, 0x32, 0x2f, 0x4d,
  0x61, 0x74, 0x4d, 0x75, 0x6c, 0x3b, 0x73, 0x65, 0x71, 0x75, 0x65, 0x6e,
  0x74, 0x69, 0x61, 0x6c, 0x2f, 0x64, 0x65, 0x6e, 0x73, 0x65, 0x5f, 0x32,
  0x2f, 0x52, 0x65, 0x6c, 0x75, 0x3b, 0x73, 0x65, 0x71, 0x75, 0x65, 0x6e,
  0x74, 0x69, 0x61, 0x6c, 0x2f, 0x64, 0x65, 0x6e, 0x73, 0x65, 0x5f, 0x32,
  0x2f, 0x42, 0x69, 0x61, 0x73, 0x41, 0x64, 0x64, 0x00, 0x00, 0x00, 0x00,
  0x02, 0x00, 0x00, 0x00, 0xff, 0xff, 0xff, 0xff, 0x10, 0x00, 0x00, 0x00,
  0x14, 0xf3, 0xff, 0xff, 0x00, 0x00, 0x0e, 0x00, 0x14, 0x00, 0x00, 0x00,
  0x08, 0x00, 0x0c, 0x00, 0x07, 0x00, 0x10, 0x00, 0x0e, 0x00, 0x00, 0x00,
  0x00, 0x00, 0x00, 0x08, 0x1c, 0x00, 0x00, 0x00, 0x10, 0x00, 0x00, 0x00,
  0x04, 0x00, 0x00, 0x00, 0x32, 0xff, 0xff, 0xff, 0x00, 0x00, 0x00, 0x01,
  0x01, 0x00, 0x00, 0x00, 0x0a, 0x00, 0x00, 0x00, 0x03, 0x00, 0x00, 0x00,
  0x09, 0x00, 0x00, 0x00, 0x06, 0x00, 0x00, 0x00, 0x03, 0x00, 0x00, 0x00,
  0xf8, 0xf2, 0xff, 0xff, 0x14, 0x00, 0x00, 0x00, 0x0b, 0x00, 0x00, 0x00,
  0x18, 0x00, 0x00, 0x00, 0x74, 0x00, 0x00, 0x00, 0x64, 0x00, 0x00, 0x00,
  0x02, 0x00, 0x00, 0x00, 0x01, 0x00, 0x00, 0x00, 0x10, 0x00, 0x00, 0x00,
  0x4c, 0x00, 0x00, 0x00, 0x73, 0x65, 0x71, 0x75, 0x65, 0x6e, 0x74, 0x69,
  0x61, 0x6c, 0x2f, 0x64, 0x65, 0x6e, 0x73, 0x65, 0x5f, 0x31, 0x2f, 0x4d,
  0x61, 0x74, 0x4d, 0x75, 0x6c, 0x3b, 0x73, 0x65, 0x71, 0x75, 0x65, 0x6e,
  0x74, 0x69, 0x61, 0x6c, 0x2f, 0x64, 0x65, 0x6e, 0x73, 0x65, 0x5f, 0x31,
  0x2f, 0x52, 0x65, 0x6c, 0x75, 0x3b, 0x73, 0x65, 0x71, 0x75, 0x65, 0x6e,
  0x74, 0x69, 0x61, 0x6c, 0x2f, 0x64, 0x65, 0x6e, 0x73, 0x65, 0x5f, 0x31,
  0x2f, 0x42, 0x69, 0x61, 0x73, 0x41, 0x64, 0x64, 0x00, 0x00, 0x00, 0x00,
  0x02, 0x00, 0x00, 0x00, 0xff, 0xff, 0xff, 0xff, 0x10, 0x00, 0x00, 0x00,
  0xe0, 0xf3, 0xff, 0xff, 0x00, 0x00, 0x0e, 0x00, 0x16, 0x00, 0x00, 0x00,
  0x08, 0x00, 0x0c, 0x00, 0x07, 0x00, 0x10, 0x00, 0x0e, 0x00, 0x00, 0x00,
  0x00, 0x00, 0x00, 0x08, 0x24, 0x00, 0x00, 0x00, 0x18, 0x00, 0x00, 0x00,
  0x0c, 0x00, 0x00, 0x00, 0x00, 0x00, 0x06, 0x00, 0x08, 0x00, 0x07, 0x00,
  0x06, 0x00, 0x00, 0x00, 0x00, 0x00, 0x00, 0x01, 0x01, 0x00, 0x00, 0x00,
  0x09, 0x00, 0x00, 0x00, 0x03, 0x00, 0x00, 0x00, 0x00, 0x00, 0x00, 0x00,
  0x05, 0x00, 0x00, 0x00, 0x04, 0x00, 0x00, 0x00, 0x0c, 0x00, 0x10, 0x00,
  0x0b, 0x00, 0x00, 0x00, 0x0c, 0x00, 0x04, 0x00, 0x0c, 0x00, 0x00, 0x00,
  0x09, 0x00, 0x00, 0x00, 0x00, 0x00, 0x00, 0x09, 0x01, 0x00, 0x00, 0x00,
  0xe8, 0xf3, 0xff, 0xff, 0x14, 0x00, 0x00, 0x00, 0x0a, 0x00, 0x00, 0x00,
  0x18, 0x00, 0x00, 0x00, 0x6c, 0x00, 0x00, 0x00, 0x5c, 0x00, 0x00, 0x00,
  0x02, 0x00, 0x00, 0x00, 0x01, 0x00, 0x00, 0x00, 0x10, 0x00, 0x00, 0x00,
  0x46, 0x00, 0x00, 0x00, 0x73, 0x65, 0x71, 0x75, 0x65, 0x6e, 0x74, 0x69,
  0x61, 0x6c, 0x2f, 0x64, 0x65, 0x6e, 0x73, 0x65, 0x2f, 0x4d, 0x61, 0x74,
  0x4d, 0x75, 0x6c, 0x3b, 0x73, 0x65, 0x71, 0x75, 0x65, 0x6e, 0x74, 0x69,
  0x61, 0x6c, 0x2f, 0x64, 0x65, 0x6e, 0x73, 0x65, 0x2f, 0x52, 0x65, 0x6c,
  0x75, 0x3b, 0x73, 0x65, 0x71, 0x75, 0x65, 0x6e, 0x74, 0x69, 0x61, 0x6c,
  0x2f, 0x64, 0x65, 0x6e, 0x73, 0x65, 0x2f, 0x42, 0x69, 0x61, 0x73, 0x41,
  0x64, 0x64, 0x00, 0x00, 0x02, 0x00, 0x00, 0x00, 0xff, 0xff, 0xff, 0xff,
  0x10, 0x00, 0x00, 0x00, 0xf8, 0xf3, 0xff, 0xff, 0xc2, 0xf4, 0xff, 0xff,
  0x04, 0x00, 0x00, 0x00, 0x40, 0x00, 0x00, 0x00, 0x24, 0x10, 0x6a, 0xbf,
  0xec, 0x21, 0x03, 0xbf, 0xcb, 0x15, 0x84, 0xbe, 0xd3, 0x6f, 0x9c, 0xbe,
  0x90, 0xde, 0x80, 0x3e, 0x40, 0x33, 0xd5, 0xbc, 0x6c, 0x6d, 0xc2, 0x3f,
  0x59, 0x3c, 0xdc, 0xbe, 0x45, 0x7e, 0x73, 0xbe, 0x77, 0xc7, 0x4a, 0xbd,
  0x3c, 0x59, 0x08, 0x3e, 0xa1, 0x89, 0x3e, 0x3e, 0x8a, 0x7f, 0x8a, 0xbe,
  0x24, 0xe6, 0x09, 0xbf, 0x51, 0x68, 0x82, 0x3f, 0x5e, 0x9f, 0x17, 0x3e,
  0xf6, 0xf4, 0xff, 0xff, 0x10, 0x00, 0x00, 0x00, 0x09, 0x00, 0x00, 0x00,
  0x14, 0x00, 0x00, 0x00, 0x30, 0x00, 0x00, 0x00, 0x02, 0x00, 0x00, 0x00,
  0x01, 0x00, 0x00, 0x00, 0x10, 0x00, 0x00, 0x00, 0x19, 0x00, 0x00, 0x00,
  0x73, 0x65, 0x71, 0x75, 0x65, 0x6e, 0x74, 0x69, 0x61, 0x6c, 0x2f, 0x64,
  0x65, 0x6e, 0x73, 0x65, 0x5f, 0x33, 0x2f, 0x4d, 0x61, 0x74, 0x4d, 0x75,
  0x6c, 0x00, 0x00, 0x00, 0x88, 0xf4, 0xff, 0xff, 0x52, 0xf5, 0xff, 0xff,
  0x04, 0x00, 0x00, 0x00, 0x00, 0x04, 0x00, 0x00, 0xa8, 0x51, 0x43, 0xbf,
  0xbc, 0x35, 0xab, 0x3e, 0x69, 0x27, 0x6d, 0xbe, 0x19, 0x1c, 0x9d, 0x3e,
  0x5d, 0xaa, 0xcf, 0xbe, 0xd4, 0x15, 0x27, 0xbe, 0xbd, 0x2c, 0x10, 0x3f,
  0x5b, 0x31, 0x9a, 0x3e, 0x3d, 0x4e, 0xe6, 0xbe, 0xf4, 0xdd, 0xff, 0x3d,
  0xb1, 0x64, 0xeb, 0xbe, 0xda, 0xee, 0x72, 0xbc, 0xf8, 0x57, 0x10, 0x3e,
  0x4e, 0x2c, 0xa4, 0x3e, 0xd0, 0xd8, 0xea, 0x3c, 0x9b, 0xd6, 0xd9, 0x3e,
  0x58, 0xb3, 0x59, 0xbd, 0x30, 0x54, 0x06, 0xbe, 0xc3, 0x24, 0xd4, 0x3e,
  0x52, 0x55, 0xa9, 0xbe, 0x1c, 0x0e, 0x84, 0xbd, 0x30, 0x9d, 0x44, 0xbd,
  0x1c, 0x21, 0x69, 0xbe, 0x6d, 0x53, 0xda, 0x3e, 0x80, 0x59, 0x57, 0xbe,
  0x94, 0xd5, 0xbe, 0xbd, 0xcc, 0xd4, 0x98, 0xbe, 0x38, 0x55, 0xc9, 0xbe,
  0x4a, 0x2c, 0xc5, 0xbe, 0x81, 0xac, 0xda, 0xbe, 0xef, 0xb9, 0xce, 0xbe,
  0x59, 0x52, 0xb9, 0x3e, 0x1e, 0x1a, 0x23, 0xbe, 0x62, 0x58, 0x24, 0x3e,
  0xfd, 0x5e, 0x89, 0x3e, 0x49, 0x1f, 0x87, 0x3e, 0x42, 0xc3, 0x57, 0x3e,
  0x3e, 0x5e, 0xd1, 0xbe, 0x26, 0xe2, 0x2f, 0x3e, 0x85, 0xca, 0x5d, 0xbe,
  0x36, 0xe7, 0x59, 0xbe, 0x6d, 0x0a, 0x8d, 0xbe, 0x94, 0x99, 0xc5, 0xbd,
  0xc0, 0xc7, 0xf6, 0xbb, 0xc2, 0x89, 0x4d, 0x3e, 0x53, 0x13, 0x74, 0xbe,
  0x9a, 0x30, 0x00, 0xbe, 0x74, 0x0c, 0xde, 0x3d, 0x0e, 0x37, 0xc4, 0xbe,
  0x40, 0xe8, 0xaf, 0x3c, 0xbc, 0x51, 0xcd, 0x3d, 0x4c, 0xea, 0xef, 0x3d,
  0x4b, 0xfa, 0xb0, 0xbe, 0x47, 0xc3, 0x5f, 0xbe, 0x37, 0xa8, 0xb9, 0x3e,
  0x22, 0xc9, 0x78, 0x3e, 0x98, 0x1d, 0x12, 0xbd, 0xe0, 0x75, 0x54, 0xbc,
  0xb7, 0x10, 0x8f, 0x3e, 0x74, 0x39, 0xd1, 0xbd, 0x16, 0xb0, 0x1e, 0xbe,
  0x72, 0x3e, 0xc4, 0xbe, 0xee, 0x56, 0xa4, 0xbe, 0x04, 0x08, 0xbb, 0xbe,
  0xad, 0x00, 0xa1, 0x3d, 0xc0, 0x2a, 0x44, 0xbd, 0x50, 0x3e, 0xaa, 0x3c,
  0x68, 0x55, 0x78, 0x3d, 0x57, 0xee, 0x9f, 0x3e, 0xad, 0x5c, 0xf0, 0xbd,
  0xe8, 0xd9, 0x88, 0xbe, 0xe8, 0x42, 0x61, 0x3d, 0xe7, 0x5d, 0x9e, 0xbe,
  0xdd, 0x78, 0xd7, 0x3e, 0x42, 0x25, 0x06, 0x3e, 0xd7, 0xd0, 0x0b, 0x3e,
  0xf3, 0x66, 0x92, 0x3e, 0x06, 0xcc, 0x20, 0xbe, 0x46, 0x5f, 0xbf, 0x3e,
  0x80, 0x12, 0x89, 0x3c, 0x6e, 0x1a, 0x91, 0xbe, 0x5a, 0xaf, 0x76, 0x3e,
  0xd0, 0x47, 0xae, 0xbe, 0x9a, 0xbb, 0x57, 0xbe, 0x5a, 0xb3, 0x50, 0xbe,
  0x90, 0x67, 0x54, 0xbd, 0xeb, 0xc6, 0x9c, 0xbe, 0xa0, 0x65, 0x92, 0xbd,
  0xda, 0xa7, 0x05, 0xbe, 0xd0, 0x37, 0xd6, 0xbd, 0x20, 0x10, 0x4e, 0xbe,
  0x20, 0x9a, 0x03, 0x3c, 0x83, 0xe9, 0x8b, 0xbe, 0x60, 0x2e, 0x5f, 0xbe,
  0x54, 0x52, 0xc4, 0xbd, 0x7c, 0xc2, 0x12, 0xbe, 0xc5, 0x0c, 0xb1, 0xbe,
  0x38, 0x14, 0xee, 0xbe, 0x48, 0x1f, 0x1c, 0x3d, 0x94, 0x82, 0xeb, 0x3d,
  0xd4, 0xb3, 0x8b, 0xbe, 0x82, 0xc6, 0x78, 0xbe, 0x10, 0xe1, 0xde, 0xbe,
  0xbd, 0x76, 0x40, 0x3f, 0x6d, 0x32, 0x1b, 0x3f, 0x5d, 0x76, 0xa3, 0x3e,
  0xf3, 0xb9, 0xa3, 0x3e, 0x41, 0xb7, 0x77, 0xbe, 0x3d, 0x9b, 0x26, 0x3f,
  0xd8, 0x5d, 0xdb, 0xbe, 0xd0, 0xed, 0x7a, 0xbe, 0xa1, 0x42, 0x6e, 0xbe,
  0x26, 0x8b, 0x75, 0x3e, 0x92, 0x83, 0x23, 0x3d, 0x1d, 0x59, 0x65, 0xbe,
  0x26, 0x7d, 0x79, 0x3e, 0x08, 0x34, 0x67, 0x3d, 0x53, 0xb1, 0x8e, 0x3e,
  0xca, 0x6f, 0xf7, 0x3e, 0x13, 0x58, 0xa9, 0xbe, 0x72, 0x24, 0x39, 0x3e,
  0x6c, 0xf5, 0xeb, 0x3d, 0x55, 0xef, 0xe1, 0x3d, 0x96, 0x41, 0x4b, 0xbe,
  0xf4, 0x13, 0x91, 0xbd, 0xce, 0x62, 0x7b, 0xbf, 0x4d, 0x7d, 0x80, 0x3e,
  0x7c, 0x1a, 0x00, 0x3d, 0xb9, 0x88, 0xb8, 0x3e, 0x5b, 0x84, 0x69, 0xbe,
  0xe4, 0x36, 0xd0, 0xbd, 0xb4, 0x58, 0xe7, 0x3d, 0x41, 0xfb, 0x68, 0x3e,
  0xdc, 0xad, 0x42, 0x3e, 0x61, 0x12, 0x1a, 0xbe, 0xc8, 0xef, 0x69, 0xbe,
  0xa2, 0x65, 0xc6, 0xbd, 0x59, 0x0a, 0x86, 0xbe, 0xf2, 0x17, 0xaa, 0x3e,
  0x67, 0x40, 0x6c, 0x3e, 0x58, 0x83, 0xbc, 0xbe, 0x1f, 0x1c, 0x65, 0xbf,
  0x1a, 0x26, 0x61, 0x3e, 0xcd, 0x96, 0xa4, 0xbe, 0xfa, 0xa5, 0x82, 0x3e,
  0x75, 0xcb, 0x5e, 0xbe, 0x76, 0x8f, 0x3d, 0x3e, 0x48, 0xc1, 0x70, 0xbd,
  0x8f, 0x83, 0xd4, 0x3c, 0xbf, 0x6c, 0xfe, 0x3e, 0xf6, 0x8a, 0x58, 0xbd,
  0xca, 0xdb, 0xe9, 0xbe, 0xc2, 0x50, 0x92, 0x3e, 0x18, 0xb3, 0x07, 0x3d,
  0x14, 0xe1, 0x71, 0xbe, 0x39, 0xf6, 0x57, 0xbd, 0x37, 0x01, 0xdd, 0x3d,
  0x83, 0xc3, 0x38, 0xbf, 0x25, 0x25, 0x71, 0x3e, 0x53, 0xa5, 0x45, 0xbe,
  0xcf, 0xfc, 0x73, 0xbe, 0x64, 0x1d, 0xf2, 0x3d, 0xf4, 0x4b, 0xa2, 0x3d,
  0x70, 0x92, 0xe8, 0xbd, 0xc0, 0x61, 0x85, 0x3d, 0xe0, 0x1e, 0x28, 0xbd,
  0x94, 0x07, 0x8c, 0xbe, 0x5c, 0x64, 0xd6, 0xbd, 0xb0, 0xcf, 0x02, 0x3d,
  0x9d, 0x24, 0xbf, 0xbe, 0x42, 0x33, 0xcf, 0xbe, 0x4b, 0x62, 0x47, 0xbe,
  0xd3, 0x65, 0xb0, 0xbe, 0x00, 0x14, 0xad, 0x3c, 0x09, 0x4b, 0xc6, 0x3e,
  0xb1, 0x50, 0xbb, 0x3e, 0xd8, 0xf8, 0xc3, 0x3e, 0x53, 0x82, 0xfe, 0xbc,
  0x3e, 0x36, 0x7a, 0xbe, 0x5c, 0x59, 0xdb, 0x3d, 0x29, 0x6a, 0x29, 0xbe,
  0x40, 0x7a, 0xef, 0xbd, 0x12, 0x34, 0x41, 0x3e, 0xb0, 0xe6, 0xc8, 0xbd,
  0x3d, 0x8a, 0x9f, 0x3e, 0x5c, 0xb6, 0xac, 0xbe, 0x2d, 0x7f, 0x4b, 0x3e,
  0xd7, 0x28, 0x81, 0x3e, 0x1f, 0x8b, 0x53, 0xbe, 0xc3, 0x88, 0x3b, 0x3e,
  0xb2, 0xef, 0xed, 0x3d, 0xda, 0xe1, 0x39, 0xbf, 0x81, 0xc8, 0xb9, 0xbe,
  0x89, 0xec, 0x64, 0xbe, 0x34, 0x37, 0xaf, 0xbe, 0x7e, 0xf9, 0x37, 0x3e,
  0xd6, 0x91, 0x65, 0x3e, 0xf4, 0xf5, 0x91, 0x3d, 0xc6, 0x4b, 0xad, 0xbe,
  0x7e, 0x6a, 0x6e, 0xbe, 0x00, 0x9c, 0x45, 0x3c, 0xd0, 0xc5, 0x1c, 0xbe,
  0x1c, 0xda, 0xc1, 0x3d, 0x3c, 0xef, 0x8a, 0x3d, 0xba, 0x37, 0x5d, 0x3e,
  0x10, 0xf6, 0x62, 0xbd, 0xfc, 0xb0, 0xe1, 0xbd, 0x97, 0x57, 0xc2, 0x3e,
  0x69, 0x14, 0xa9, 0x3e, 0xbb, 0x84, 0x95, 0x3e, 0x60, 0x5a, 0x26, 0xbc,
  0xce, 0x39, 0x5a, 0x3e, 0x24, 0xf3, 0xa0, 0xbc, 0x99, 0x74, 0x90, 0xbe,
  0x53, 0x0e, 0x6d, 0xbe, 0x7f, 0xa9, 0x05, 0x3e, 0xc5, 0x08, 0x02, 0x3e,
  0x25, 0xa7, 0xcb, 0x3e, 0xe9, 0x59, 0xe2, 0xbe, 0x89, 0xa7, 0x26, 0x3e,
  0x65, 0x84, 0x19, 0x3d, 0xf2, 0x0e, 0x14, 0xbe, 0x8c, 0x84, 0x86, 0x3e,
  0x24, 0x0e, 0xe0, 0x3e, 0xa8, 0x7e, 0x2e, 0x3d, 0x9a, 0x00, 0x0f, 0x3f,
  0xb8, 0x3c, 0x07, 0xbe, 0x54, 0xc9, 0xba, 0x3d, 0x76, 0xee, 0xb3, 0xbe,
  0xe7, 0x99, 0xd7, 0x3e, 0xcb, 0xd7, 0x18, 0x3d, 0x0b, 0xac, 0x77, 0xbf,
  0xa7, 0x0f, 0x09, 0xbf, 0xf1, 0x89, 0xb3, 0x3e, 0x88, 0x00, 0x16, 0x3e,
  0x9d, 0x3a, 0x02, 0x3f, 0x6f, 0x63, 0x23, 0xbf, 0x82, 0x13, 0x07, 0x3f,
  0x00, 0xd9, 0x3c, 0xbe, 0x87, 0x31, 0x63, 0xbf, 0x1c, 0xbb, 0x4e, 0xbe,
  0xb3, 0x06, 0x90, 0xbe, 0x9c, 0xd7, 0x23, 0xbe, 0xf2, 0x94, 0x62, 0xbe,
  0x00, 0x8c, 0x49, 0x3c, 0xce, 0x37, 0xc3, 0x3d, 0x2e, 0xc4, 0x34, 0x3e,
  0x28, 0x3e, 0x94, 0xbd, 0x4c, 0x9c, 0x15, 0xbe, 0x4e, 0x80, 0x34, 0x3e,
  0x61, 0x3d, 0x9c, 0x3e, 0xad, 0x2e, 0xa1, 0xbd, 0x7e, 0x00, 0x80, 0xbe,
  0xc8, 0x3a, 0x75, 0xbd, 0xd8, 0x13, 0x34, 0x3d, 0x5d, 0x06, 0xb1, 0x3e,
  0x46, 0xf9, 0xff, 0xff, 0x10, 0x00, 0x00, 0x00, 0x08, 0x00, 0x00, 0x00,
  0x14, 0x00, 0x00, 0x00, 0x30, 0x00, 0x00, 0x00, 0x02, 0x00, 0x00, 0x00,
  0x10, 0x00, 0x00, 0x00, 0x10, 0x00, 0x00, 0x00, 0x19, 0x00, 0x00, 0x00,
  0x73, 0x65, 0x71, 0x75, 0x65, 0x6e, 0x74, 0x69, 0x61, 0x6c, 0x2f, 0x64,
  0x65, 0x6e, 0x73, 0x65, 0x5f, 0x32, 0x2f, 0x4d, 0x61, 0x74, 0x4d, 0x75,
  0x6c, 0x00, 0x00, 0x00, 0xd8, 0xf8, 0xff, 0xff, 0xa2, 0xf9, 0xff, 0xff,
  0x04, 0x00, 0x00, 0x00, 0x00, 0x04, 0x00, 0x00, 0x76, 0xe8, 0x08, 0x3e,
  0x00, 0x93, 0xc3, 0xbe, 0x35, 0x69, 0x5c, 0xbe, 0xa5, 0x8c, 0xaa, 0x3e,
  0x7a, 0x5a, 0x4a, 0x3e, 0xe8, 0x17, 0xac, 0xbd, 0x8e, 0x30, 0xe3, 0x3e,
  0x63, 0xc9, 0xa5, 0xbe, 0x45, 0x17, 0x6b, 0xbe, 0x78, 0x89, 0x91, 0x3d,
  0x70, 0xb2, 0x8e, 0xbe, 0xe9, 0x28, 0x87, 0x3e, 0x3c, 0x7f, 0xca, 0x3e,
  0xed, 0x81, 0x93, 0x3e, 0xb0, 0xd0, 0xa0, 0xbc, 0x9a, 0xc1, 0x27, 0xbe,
  0x00, 0xfb, 0x44, 0xbb, 0xab, 0xff, 0xb3, 0x3e, 0x20, 0xca, 0xd8, 0xbc,
  0x06, 0x17, 0x72, 0x3e, 0x1d, 0x7b, 0x9f, 0x3e, 0x1e, 0xfa, 0xd7, 0xbe,
  0x9c, 0x39, 0x01, 0xbe, 0x40, 0x2c, 0x1a, 0xbc, 0xb9, 0x14, 0xdb, 0xbe,
  0x7c, 0x64, 0x0e, 0xbf, 0x80, 0xaf, 0x28, 0xbd, 0xa0, 0xc4, 0x15, 0x3c,
  0x23, 0xc3, 0x57, 0x3e, 0x10, 0xc3, 0x2d, 0x3d, 0xe3, 0xf7, 0xb8, 0xbe,
  0xde, 0xc5, 0x2b, 0x3e, 0xa6, 0x1b, 0xb6, 0xbe, 0x8b, 0x94, 0x8b, 0x3e,
  0xe1, 0x50, 0x5f, 0xbe, 0x3e, 0x0b, 0x35, 0xbe, 0x54, 0x86, 0xb3, 0xbe,
  0x56, 0x9e, 0x0e, 0x3e, 0x9d, 0xeb, 0xa6, 0xbe, 0x27, 0x52, 0xc8, 0x3e,
  0x30, 0x6c, 0xf0, 0xbc, 0xdc, 0x64, 0xd1, 0xbd, 0xb2, 0x3a, 0x4b, 0x3e,
  0x08, 0x32, 0x74, 0x3d, 0x48, 0xee, 0x97, 0xbe, 0x6b, 0xec, 0xd8, 0xbe,
  0x07, 0x94, 0xc6, 0x3e, 0x12, 0x99, 0x3a, 0xbe, 0x89, 0xd9, 0xd7, 0xbe,
  0x88, 0xe9, 0x71, 0xbe, 0x86, 0xc5, 0x18, 0x3e, 0x20, 0xea, 0x90, 0xbc,
  0x26, 0xec, 0xb9, 0xbe, 0xc0, 0xee, 0xa5, 0x3c, 0x97, 0x98, 0xbc, 0xbe,
  0x7b, 0x3d, 0xb1, 0x3e, 0x2e, 0x7c, 0x76, 0xbe, 0x0a, 0xaa, 0x64, 0x3e,
  0xc4, 0xeb, 0xf4, 0x3d, 0x10, 0x38, 0x11, 0xbe, 0xb0, 0x92, 0x9a, 0xbe,
  0x74, 0x20, 0xd5, 0xbe, 0x27, 0xff, 0xd4, 0xbe, 0xe0, 0xfe, 0xd2, 0xbc,
  0xa5, 0x48, 0x9a, 0xbe, 0x5b, 0x39, 0xa0, 0x3e, 0x84, 0x7a, 0xb7, 0xbd,
  0xa0, 0x57, 0xca, 0xbd, 0x04, 0x63, 0x97, 0x3d, 0x78, 0x53, 0xa5, 0xbd,
  0x23, 0x32, 0xc8, 0x3e, 0x5d, 0xbf, 0x8b, 0x3e, 0xd9, 0xfa, 0x78, 0xbe,
  0x1d, 0xc8, 0x8c, 0xbd, 0xd7, 0x0a, 0x87, 0xbe, 0xc0, 0x22, 0xd4, 0x3b,
  0x80, 0x05, 0x7f, 0xbe, 0x0c, 0x2b, 0x9f, 0xbe, 0xce, 0x26, 0x51, 0x3e,
  0x86, 0x92, 0x3c, 0x3e, 0x40, 0xe9, 0x39, 0x3c, 0xd5, 0x4f, 0xb2, 0x3e,
  0xb9, 0xde, 0x9f, 0x3e, 0x5b, 0xac, 0xb0, 0x3e, 0x79, 0x31, 0xd2, 0x3e,
  0xde, 0x89, 0x90, 0xbe, 0xa7, 0xd2, 0xd8, 0xbe, 0xb2, 0x17, 0x49, 0x3e,
  0xf6, 0x38, 0x31, 0x3e, 0xa8, 0x04, 0xef, 0x3b, 0xd9, 0xa0, 0x88, 0x3e,
  0x7b, 0x4e, 0xc9, 0x3e, 0x5e, 0xa3, 0x9e, 0x3e, 0x8a, 0x0f, 0x6d, 0xbe,
  0x68, 0xc9, 0x6f, 0x3d, 0x91, 0xfc, 0x8e, 0x3e, 0x6a, 0x9f, 0x66, 0xbe,
  0xd6, 0x17, 0x3a, 0x3e, 0x16, 0xb5, 0x70, 0x3e, 0x1c, 0x3b, 0xd0, 0xbe,
  0xc0, 0xd3, 0x1b, 0x3c, 0x80, 0x3a, 0xda, 0x3b, 0x53, 0xe7, 0x7e, 0x3e,
  0x92, 0x1e, 0x0a, 0x3e, 0xa3, 0x20, 0xad, 0xbe, 0x71, 0x81, 0xe1, 0xbe,
  0xd4, 0xc8, 0xd9, 0x3d, 0xe4, 0x44, 0xa1, 0xbd, 0x4e, 0xae, 0x11, 0xbd,
  0x33, 0xdc, 0x8e, 0x3e, 0x03, 0xc3, 0x4e, 0xbe, 0xb3, 0x30, 0xb0, 0x3e,
  0x70, 0x90, 0x35, 0x3d, 0x9e, 0x19, 0x25, 0x3e, 0x1a, 0x83, 0x04, 0x3e,
  0xb8, 0x86, 0x58, 0x3d, 0xfa, 0x73, 0xcc, 0xbe, 0x5c, 0x87, 0xe9, 0xbd,
  0xb5, 0xb4, 0x0f, 0x3f, 0xd8, 0xb4, 0x83, 0xbe, 0x88, 0x8a, 0x5f, 0xbd,
  0xde, 0x47, 0xd3, 0x3e, 0xf4, 0xb5, 0xc1, 0xbe, 0xc1, 0xca, 0x8d, 0x3e,
  0x58, 0xa1, 0xb8, 0xbd, 0xa7, 0x1a, 0xd1, 0x3e, 0x50, 0x02, 0x14, 0xbe,
  0xa0, 0xec, 0xc2, 0xbc, 0x18, 0xef, 0x42, 0xbd, 0x1b, 0x0e, 0xa2, 0x3e,
  0x62, 0xa7, 0x27, 0xbe, 0x60, 0xb2, 0x25, 0xbc, 0xf8, 0x2b, 0xdf, 0xbd,
  0xdf, 0xf9, 0xb0, 0x3e, 0xab, 0x30, 0x0f, 0x3f, 0xb2, 0xec, 0x2d, 0x3e,
  0x0d, 0x42, 0xd5, 0x3e, 0x23, 0x78, 0xf6, 0x3e, 0x52, 0xad, 0x12, 0xbe,
  0x59, 0x94, 0xb0, 0xbe, 0x57, 0xad, 0x97, 0x3e, 0x76, 0xf5, 0x41, 0x3e,
  0xfa, 0x43, 0x51, 0x3e, 0x1e, 0x9d, 0x2e, 0xbe, 0xfd, 0xe7, 0x85, 0x3e,
  0x74, 0x8d, 0xdc, 0x3d, 0x85, 0xa9, 0x92, 0x3e, 0x13, 0x71, 0xb9, 0x3e,
  0x60, 0xf8, 0x30, 0xbd, 0x96, 0x70, 0xb8, 0xbe, 0x26, 0xa8, 0xb6, 0xbe,
  0x75, 0xe9, 0x89, 0x3e, 0x22, 0xcf, 0x1a, 0xbe, 0x96, 0x99, 0x6a, 0x3e,
  0x80, 0x48, 0xf9, 0x3b, 0x78, 0x46, 0x1b, 0x3d, 0x10, 0x11, 0x7b, 0xbd,
  0xc9, 0x08, 0xa1, 0x3e, 0x2e, 0x0d, 0x26, 0xbe, 0x74, 0x3f, 0xf6, 0x3d,
  0x56, 0x50, 0x98, 0xbe, 0x58, 0xd7, 0x79, 0x3d, 0xdf, 0xb0, 0xa1, 0x3e,
  0xb4, 0xd7, 0xd6, 0xbe, 0x20, 0xa2, 0x31, 0xbd, 0x94, 0x10, 0xae, 0xbe,
  0x94, 0x61, 0x86, 0xbe, 0xfd, 0xca, 0x94, 0x3e, 0x58, 0x91, 0x1a, 0x3d,
  0xa4, 0x1d, 0x2e, 0xbe, 0x36, 0xfd, 0x19, 0x3e, 0xe7, 0x05, 0x8f, 0x3e,
  0xa3, 0xba, 0x81, 0x3d, 0xec, 0x46, 0x97, 0xbe, 0x03, 0x9d, 0xa9, 0xbe,
  0x80, 0xfa, 0xed, 0xbd, 0xc7, 0x9e, 0xa5, 0x3e, 0xc0, 0x8a, 0xd9, 0xbe,
  0x76, 0xcc, 0xa8, 0xbe, 0x42, 0x96, 0x02, 0xbe, 0x1c, 0x71, 0xe0, 0x3d,
  0x9e, 0xfb, 0x0e, 0x3e, 0x9e, 0x7e, 0x9f, 0x3e, 0xc4, 0x6d, 0x85, 0x3d,
  0xd3, 0x0b, 0xa3, 0x3e, 0xdc, 0x01, 0x2b, 0xbf, 0xc3, 0x3c, 0x97, 0xbe,
  0x45, 0x96, 0xda, 0x3e, 0xa1, 0xaf, 0xa4, 0x3e, 0x33, 0x05, 0x77, 0xbe,
  0x08, 0xa1, 0x0e, 0xbd, 0xfc, 0xc0, 0x34, 0xbe, 0x70, 0x32, 0x43, 0x3d,
  0x84, 0xb8, 0xfe, 0xbd, 0x90, 0x2d, 0xa9, 0xbe, 0x4c, 0x4b, 0xed, 0xbd,
  0x94, 0x9c, 0xe3, 0x3d, 0x1b, 0x5f, 0xc6, 0x3e, 0x0c, 0x39, 0x2e, 0xbe,
  0x40, 0x9c, 0x08, 0xbc, 0x07, 0x24, 0xa2, 0xbe, 0x7a, 0xf8, 0xef, 0x3e,
  0xbc, 0x3e, 0xa5, 0xbd, 0x11, 0x59, 0xca, 0xbe, 0x78, 0x7e, 0xb1, 0x3e,
  0xc8, 0x84, 0x08, 0x3d, 0x9f, 0x29, 0x5e, 0xbe, 0x6f, 0x13, 0xd7, 0x3e,
  0xa7, 0xf8, 0xa7, 0x3e, 0x51, 0xe2, 0xd7, 0xbe, 0x3c, 0xf4, 0x87, 0xbe,
  0x5b, 0x7d, 0xa0, 0xbe, 0xeb, 0xb5, 0xc7, 0x3e, 0x1f, 0x4e, 0xb3, 0x3e,
  0xa7, 0x80, 0x6a, 0xbe, 0x76, 0x5c, 0x17, 0x3e, 0xe0, 0xe8, 0xca, 0x3c,
  0x1a, 0xfe, 0x9f, 0xbe, 0xb6, 0xca, 0x0f, 0x3e, 0x91, 0xee, 0x92, 0x3e,
  0xdf, 0x2c, 0x95, 0x3d, 0x80, 0x7e, 0x37, 0xbc, 0xbc, 0x9b, 0xb8, 0xbe,
  0x7c, 0x16, 0xaa, 0xbe, 0xaa, 0xd6, 0x03, 0x3e, 0x0a, 0x4f, 0x27, 0x3e,
  0xe0, 0x0d, 0xed, 0xbc, 0xea, 0x94, 0x21, 0x3e, 0x90, 0xfe, 0xa5, 0xbd,
  0xff, 0x1a, 0xd7, 0xbe, 0x52, 0x37, 0xbb, 0xbc, 0xd8, 0x05, 0xbe, 0xbd,
  0x9b, 0x11, 0x81, 0x3e, 0x99, 0xc2, 0xb4, 0x3e, 0x5c, 0x69, 0x40, 0xbe,
  0x1a, 0x1f, 0x4a, 0x3e, 0x74, 0x9b, 0xf6, 0xbd, 0x9c, 0xc8, 0xbd, 0x3d,
  0x53, 0xb8, 0xaf, 0x3e, 0xd6, 0xef, 0x3a, 0xbe, 0xcf, 0x61, 0xd5, 0xbe,
  0x50, 0x42, 0x41, 0xbd, 0xb2, 0x9d, 0x37, 0x3e, 0xbc, 0xa5, 0xb6, 0x3d,
  0xf4, 0xf2, 0xd8, 0xbe, 0xd6, 0x57, 0x55, 0x3e, 0x42, 0x32, 0x05, 0xbf,
  0x99, 0x14, 0xbd, 0x3e, 0x87, 0xd1, 0xa4, 0xbe, 0x67, 0xcd, 0xf0, 0xbe,
  0xee, 0xc9, 0x69, 0x3e, 0x29, 0xb3, 0x99, 0x3e, 0x13, 0x37, 0xb9, 0xbe,
  0x15, 0xe0, 0xbd, 0xbe, 0x4e, 0x1c, 0x5e, 0xbe, 0x58, 0x7b, 0xf5, 0xbd,
  0x96, 0xfd, 0xff, 0xff, 0x10, 0x00, 0x00, 0x00, 0x07, 0x00, 0x00, 0x00,
  0x14, 0x00, 0x00, 0x00, 0x30, 0x00, 0x00, 0x00, 0x02, 0x00, 0x00, 0x00,
  0x10, 0x00, 0x00, 0x00, 0x10, 0x00, 0x00, 0x00, 0x19, 0x00, 0x00, 0x00,
  0x73, 0x65, 0x71, 0x75, 0x65, 0x6e, 0x74, 0x69, 0x61, 0x6c, 0x2f, 0x64,
  0x65, 0x6e, 0x73, 0x65, 0x5f, 0x31, 0x2f, 0x4d, 0x61, 0x74, 0x4d, 0x75,
  0x6c, 0x00, 0x00, 0x00, 0x28, 0xfd, 0xff, 0xff, 0xf2, 0xfd, 0xff, 0xff,
  0x04, 0x00, 0x00, 0x00, 0x40, 0x00, 0x00, 0x00, 0x48, 0x43, 0x2d, 0xbe,
  0xdc, 0x07, 0x31, 0xbe, 0x28, 0x27, 0x38, 0xbe, 0x1b, 0xa2, 0x05, 0xbf,
  0x98, 0xa1, 0x7c, 0xbe, 0x49, 0x76, 0x0c, 0xbf, 0x81, 0x9f, 0xe3, 0x3e,
  0x93, 0x28, 0x8b, 0xbe, 0x54, 0x87, 0xfb, 0xbd, 0x52, 0xd6, 0x86, 0x3e,
  0x1a, 0x16, 0x0b, 0xbe, 0xf4, 0xed, 0xa3, 0xbe, 0x0e, 0x0e, 0x2a, 0x3f,
  0x2c, 0xf3, 0xc7, 0xbe, 0xde, 0x28, 0xf0, 0xbe, 0xa1, 0x56, 0xa2, 0xbe,
  0x26, 0xfe, 0xff, 0xff, 0x10, 0x00, 0x00, 0x00, 0x06, 0x00, 0x00, 0x00,
  0x14, 0x00, 0x00, 0x00, 0x2c, 0x00, 0x00, 0x00, 0x02, 0x00, 0x00, 0x00,
  0x10, 0x00, 0x00, 0x00, 0x01, 0x00, 0x00, 0x00, 0x17, 0x00, 0x00, 0x00,
  0x73, 0x65, 0x71, 0x75, 0x65, 0x6e, 0x74, 0x69, 0x61, 0x6c, 0x2f, 0x64,
  0x65, 0x6e, 0x73, 0x65, 0x2f, 0x4d, 0x61, 0x74, 0x4d, 0x75, 0x6c, 0x00,
  0xb4, 0xfd, 0xff, 0xff, 0x7e, 0xfe, 0xff, 0xff, 0x04, 0x00, 0x00, 0x00,
  0x40, 0x00, 0x00, 0x00, 0x00, 0x00, 0x00, 0x00, 0x00, 0x00, 0x00, 0x00,
  0x00, 0x00, 0x00, 0x00, 0x00, 0x00, 0x00, 0x00, 0x00, 0x00, 0x00, 0x00,
  0x00, 0x00, 0x00, 0x00, 0xaa, 0xca, 0x54, 0xbe, 0x00, 0x00, 0x00, 0x00,
  0x00, 0x00, 0x00, 0x00, 0x9f, 0xd1, 0xea, 0xbe, 0x00, 0x00, 0x00, 0x00,
  0x00, 0x00, 0x00, 0x00, 0x4c, 0xef, 0x51, 0x3d, 0x00, 0x00, 0x00, 0x00,
  0x00, 0x00, 0x00, 0x00, 0x00, 0x00, 0x00, 0x00, 0xb2, 0xfe, 0xff, 0xff,
  0x10, 0x00, 0x00, 0x00, 0x05, 0x00, 0x00, 0x00, 0x10, 0x00, 0x00, 0x00,
  0x1c, 0x00, 0x00, 0x00, 0x01, 0x00, 0x00, 0x00, 0x10, 0x00, 0x00, 0x00,
  0x0a, 0x00, 0x00, 0x00, 0x64, 0x65, 0x6e, 0x73, 0x65, 0x2f, 0x62, 0x69,
  0x61, 0x73, 0x00, 0x00, 0x30, 0xfe, 0xff, 0xff, 0xfa, 0xfe, 0xff, 0xff,
  0x04, 0x00, 0x00, 0x00, 0x40, 0x00, 0x00, 0x00, 0x1e, 0xae, 0x3d, 0x3e,
  0x55, 0x6b, 0xb9, 0x3e, 0x00, 0x00, 0x00, 0x00, 0x00, 0x00, 0x00, 0x00,
  0x20, 0x3a, 0x4f, 0xbb, 0x95, 0xb6, 0x69, 0x3e, 0x2a, 0xb2, 0xc4, 0x3e,
  0x77, 0xa4, 0x02, 0xbf, 0xa1, 0xe8, 0x09, 0xbf, 0x00, 0x00, 0x00, 0x00,
  0xc0, 0xbb, 0x42, 0x39, 0xf9, 0x57, 0xa4, 0x3e, 0xec, 0x73, 0x07, 0xbf,
  0x10, 0xf1, 0xb5, 0x3e, 0x00, 0x60, 0x84, 0x34, 0x9a, 0xf7, 0x7c, 0x3e,
  0x2e, 0xff, 0xff, 0xff, 0x10, 0x00, 0x00, 0x00, 0x04, 0x00, 0x00, 0x00,
  0x10, 0x00, 0x00, 0x00, 0x20, 0x00, 0x00, 0x00, 0x01, 0x00, 0x00, 0x00,
  0x10, 0x00, 0x00, 0x00, 0x0c, 0x00, 0x00, 0x00, 0x64, 0x65, 0x6e, 0x73,
  0x65, 0x5f, 0x31, 0x2f, 0x62, 0x69, 0x61, 0x73, 0x00, 0x00, 0x00, 0x00,
  0xb0, 0xfe, 0xff, 0xff, 0x7a, 0xff, 0xff, 0xff, 0x04, 0x00, 0x00, 0x00,
  0x40, 0x00, 0x00, 0x00, 0x4a, 0x16, 0x91, 0x3e, 0x00, 0x00, 0x00, 0x00,
  0x00, 0x00, 0x00, 0x00, 0x00, 0x00, 0x00, 0x00, 0xa1, 0x37, 0x4f, 0xbb,
  0x00, 0x00, 0x00, 0x00, 0x45, 0x96, 0x0c, 0xbf, 0xcd, 0x92, 0x05, 0xbc,
  0x69, 0xe8, 0x06, 0x3d, 0x2c, 0x90, 0x83, 0x3c, 0x00, 0x00, 0x00, 0x00,
  0xb0, 0x24, 0xaf, 0xbd, 0x00, 0x00, 0x00, 0x00, 0xac, 0x26, 0x56, 0x3d,
  0xb9, 0x1a, 0x86, 0x3e, 0x26, 0x27, 0x19, 0xbd, 0xae, 0xff, 0xff, 0xff,
  0x10, 0x00, 0x00, 0x00, 0x03, 0x00, 0x00, 0x00, 0x10, 0x00, 0x00, 0x00,
  0x24, 0x00, 0x00, 0x00, 0x01, 0x00, 0x00, 0x00, 0x10, 0x00, 0x00, 0x00,
  0x0c, 0x00, 0x00, 0x00, 0x64, 0x65, 0x6e, 0x73, 0x65, 0x5f, 0x32, 0x2f,
  0x62, 0x69, 0x61, 0x73, 0x00, 0x00, 0x00, 0x00, 0x04, 0x00, 0x06, 0x00,
  0x04, 0x00, 0x00, 0x00, 0x00, 0x00, 0x06, 0x00, 0x08, 0x00, 0x04, 0x00,
  0x06, 0x00, 0x00, 0x00, 0x04, 0x00, 0x00, 0x00, 0x04, 0x00, 0x00, 0x00,
  0xbf, 0xd0, 0xa7, 0xbd, 0x00, 0x00, 0x0e, 0x00, 0x14, 0x00, 0x04, 0x00,
  0x00, 0x00, 0x08, 0x00, 0x0c, 0x00, 0x10, 0x00, 0x0e, 0x00, 0x00, 0x00,
  0x10, 0x00, 0x00, 0x00, 0x02, 0x00, 0x00, 0x00, 0x10, 0x00, 0x00, 0x00,
  0x20, 0x00, 0x00, 0x00, 0x01, 0x00, 0x00, 0x00, 0x01, 0x00, 0x00, 0x00,
  0x0c, 0x00, 0x00, 0x00, 0x64, 0x65, 0x6e, 0x73, 0x65, 0x5f, 0x33, 0x2f,
  0x62, 0x69, 0x61, 0x73, 0x00, 0x00, 0x00, 0x00, 0x90, 0xff, 0xff, 0xff,
  0x14, 0x00, 0x18, 0x00, 0x04, 0x00, 0x00, 0x00, 0x08, 0x00, 0x0c, 0x00,
  0x10, 0x00, 0x00, 0x00, 0x00, 0x00, 0x14, 0x00, 0x14, 0x00, 0x00, 0x00,
  0x14, 0x00, 0x00, 0x00, 0x01, 0x00, 0x00, 0x00, 0x18, 0x00, 0x00, 0x00,
  0x44, 0x00, 0x00, 0x00, 0x34, 0x00, 0x00, 0x00, 0x02, 0x00, 0x00, 0x00,
  0x01, 0x00, 0x00, 0x00, 0x01, 0x00, 0x00, 0x00, 0x1d, 0x00, 0x00, 0x00,
  0x73, 0x65, 0x72, 0x76, 0x69, 0x6e, 0x67, 0x5f, 0x64, 0x65, 0x66, 0x61,
  0x75, 0x6c, 0x74, 0x5f, 0x64, 0x65, 0x6e, 0x73, 0x65, 0x5f, 0x69, 0x6e,
  0x70, 0x75, 0x74, 0x3a, 0x30, 0x00, 0x00, 0x00, 0x02, 0x00, 0x00, 0x00,
  0xff, 0xff, 0xff, 0xff, 0x01, 0x00, 0x00, 0x00, 0xfc, 0xff, 0xff, 0xff,
  0x04, 0x00, 0x04, 0x00, 0x04, 0x00, 0x00, 0x00
};


#endif //SINE_MODEL_H
