
#ifndef SINE_MODEL_H
#define SINE_MODEL_H

/*
unsigned int sine_model_len = 2904;
unsigned char sine_model[] = {
 0x1c, 0x00, 0x00, 0x00, 0x54, 0x46, 0x4c, 0x33, 0x14, 0x00, 0x20, 0x00,
  0x04, 0x00, 0x08, 0x00, 0x0c, 0x00, 0x10, 0x00, 0x14, 0x00, 0x00, 0x00,
  0x18, 0x00, 0x1c, 0x00, 0x14, 0x00, 0x00, 0x00, 0x03, 0x00, 0x00, 0x00,
  0x18, 0x00, 0x00, 0x00, 0x1c, 0x00, 0x00, 0x00, 0x24, 0x01, 0x00, 0x00,
  0x1c, 0x00, 0x00, 0x00, 0xcc, 0x00, 0x00, 0x00, 0x48, 0x00, 0x00, 0x00,
  0x01, 0x00, 0x00, 0x00, 0x4c, 0x03, 0x00, 0x00, 0x01, 0x00, 0x00, 0x00,
  0x2c, 0x01, 0x00, 0x00, 0x0c, 0x00, 0x00, 0x00, 0x04, 0x0b, 0x00, 0x00,
  0x00, 0x0b, 0x00, 0x00, 0x38, 0x0a, 0x00, 0x00, 0xa8, 0x09, 0x00, 0x00,
  0x28, 0x09, 0x00, 0x00, 0x98, 0x08, 0x00, 0x00, 0x44, 0x04, 0x00, 0x00,
  0xb0, 0x03, 0x00, 0x00, 0xe4, 0x0a, 0x00, 0x00, 0xe0, 0x0a, 0x00, 0x00,
  0xdc, 0x0a, 0x00, 0x00, 0xb8, 0x00, 0x00, 0x00, 0x01, 0x00, 0x00, 0x00,
  0x10, 0x00, 0x00, 0x00, 0x00, 0x00, 0x0a, 0x00, 0x10, 0x00, 0x0c, 0x00,
  0x08, 0x00, 0x04, 0x00, 0x0a, 0x00, 0x00, 0x00, 0x0c, 0x00, 0x00, 0x00,
  0x1c, 0x00, 0x00, 0x00, 0x20, 0x00, 0x00, 0x00, 0x0f, 0x00, 0x00, 0x00,
  0x73, 0x65, 0x72, 0x76, 0x69, 0x6e, 0x67, 0x5f, 0x64, 0x65, 0x66, 0x61,
  0x75, 0x6c, 0x74, 0x00, 0x01, 0x00, 0x00, 0x00, 0x14, 0x00, 0x00, 0x00,
  0x01, 0x00, 0x00, 0x00, 0x24, 0x00, 0x00, 0x00, 0x08, 0x00, 0x0c, 0x00,
  0x08, 0x00, 0x04, 0x00, 0x08, 0x00, 0x00, 0x00, 0x09, 0x00, 0x00, 0x00,
  0x04, 0x00, 0x00, 0x00, 0x07, 0x00, 0x00, 0x00, 0x64, 0x65, 0x6e, 0x73,
  0x65, 0x5f, 0x32, 0x00, 0x5e, 0xf6, 0xff, 0xff, 0x04, 0x00, 0x00, 0x00,
  0x0b, 0x00, 0x00, 0x00, 0x64, 0x65, 0x6e, 0x73, 0x65, 0x5f, 0x69, 0x6e,
  0x70, 0x75, 0x74, 0x00, 0x01, 0x00, 0x00, 0x00, 0x0c, 0x00, 0x00, 0x00,
  0x08, 0x00, 0x0c, 0x00, 0x04, 0x00, 0x08, 0x00, 0x08, 0x00, 0x00, 0x00,
  0x08, 0x00, 0x00, 0x00, 0x0b, 0x00, 0x00, 0x00, 0x13, 0x00, 0x00, 0x00,
  0x6d, 0x69, 0x6e, 0x5f, 0x72, 0x75, 0x6e, 0x74, 0x69, 0x6d, 0x65, 0x5f,
  0x76, 0x65, 0x72, 0x73, 0x69, 0x6f, 0x6e, 0x00, 0xaa, 0xf6, 0xff, 0xff,
  0x04, 0x00, 0x00, 0x00, 0x10, 0x00, 0x00, 0x00, 0x31, 0x2e, 0x35, 0x2e,
  0x30, 0x00, 0x00, 0x00, 0x00, 0x00, 0x00, 0x00, 0x00, 0x00, 0x00, 0x00,
  0x0f, 0x00, 0x00, 0x00, 0x4d, 0x4c, 0x49, 0x52, 0x20, 0x43, 0x6f, 0x6e,
  0x76, 0x65, 0x72, 0x74, 0x65, 0x64, 0x2e, 0x00, 0x00, 0x00, 0x0e, 0x00,
  0x18, 0x00, 0x04, 0x00, 0x08, 0x00, 0x0c, 0x00, 0x10, 0x00, 0x14, 0x00,
  0x0e, 0x00, 0x00, 0x00, 0x14, 0x00, 0x00, 0x00, 0x3c, 0x00, 0x00, 0x00,
  0x40, 0x00, 0x00, 0x00, 0x44, 0x00, 0x00, 0x00, 0x50, 0x00, 0x00, 0x00,
  0x0a, 0x00, 0x00, 0x00, 0x68, 0x09, 0x00, 0x00, 0x1c, 0x09, 0x00, 0x00,
  0xb8, 0x08, 0x00, 0x00, 0x38, 0x08, 0x00, 0x00, 0xa8, 0x07, 0x00, 0x00,
  0x14, 0x07, 0x00, 0x00, 0xc0, 0x02, 0x00, 0x00, 0xf0, 0x01, 0x00, 0x00,
  0xfc, 0x00, 0x00, 0x00, 0x60, 0x00, 0x00, 0x00, 0x01, 0x00, 0x00, 0x00,
  0x00, 0x00, 0x00, 0x00, 0x01, 0x00, 0x00, 0x00, 0x09, 0x00, 0x00, 0x00,
  0x03, 0x00, 0x00, 0x00, 0x78, 0x01, 0x00, 0x00, 0xa8, 0x00, 0x00, 0x00,
  0x10, 0x00, 0x00, 0x00, 0x04, 0x00, 0x00, 0x00, 0x6d, 0x61, 0x69, 0x6e,
  0x00, 0x00, 0x00, 0x00, 0x7a, 0xff, 0xff, 0xff, 0x00, 0x00, 0x00, 0x08,
  0x18, 0x00, 0x00, 0x00, 0x0c, 0x00, 0x00, 0x00, 0x04, 0x00, 0x00, 0x00,
  0xa8, 0xf6, 0xff, 0xff, 0x01, 0x00, 0x00, 0x00, 0x09, 0x00, 0x00, 0x00,
  0x03, 0x00, 0x00, 0x00, 0x08, 0x00, 0x00, 0x00, 0x06, 0x00, 0x00, 0x00,
  0x01, 0x00, 0x00, 0x00, 0x30, 0xf7, 0xff, 0xff, 0x14, 0x00, 0x00, 0x00,
  0x0a, 0x00, 0x00, 0x00, 0x18, 0x00, 0x00, 0x00, 0x40, 0x00, 0x00, 0x00,
  0x30, 0x00, 0x00, 0x00, 0x02, 0x00, 0x00, 0x00, 0x01, 0x00, 0x00, 0x00,
  0x01, 0x00, 0x00, 0x00, 0x19, 0x00, 0x00, 0x00, 0x53, 0x74, 0x61, 0x74,
  0x65, 0x66, 0x75, 0x6c, 0x50, 0x61, 0x72, 0x74, 0x69, 0x74, 0x69, 0x6f,
  0x6e, 0x65, 0x64, 0x43, 0x61, 0x6c, 0x6c, 0x3a, 0x30, 0x00, 0x00, 0x00,
  0x02, 0x00, 0x00, 0x00, 0xff, 0xff, 0xff, 0xff, 0x01, 0x00, 0x00, 0x00,
  0xe4, 0xf7, 0xff, 0xff, 0x00, 0x00, 0x0e, 0x00, 0x14, 0x00, 0x00, 0x00,
  0x08, 0x00, 0x0c, 0x00, 0x07, 0x00, 0x10, 0x00, 0x0e, 0x00, 0x00, 0x00,
  0x00, 0x00, 0x00, 0x08, 0x1c, 0x00, 0x00, 0x00, 0x10, 0x00, 0x00, 0x00,
  0x04, 0x00, 0x00, 0x00, 0x32, 0xff, 0xff, 0xff, 0x00, 0x00, 0x00, 0x01,
  0x01, 0x00, 0x00, 0x00, 0x08, 0x00, 0x00, 0x00, 0x03, 0x00, 0x00, 0x00,
  0x07, 0x00, 0x00, 0x00, 0x05, 0x00, 0x00, 0x00, 0x02, 0x00, 0x00, 0x00,
  0xc8, 0xf7, 0xff, 0xff, 0x14, 0x00, 0x00, 0x00, 0x09, 0x00, 0x00, 0x00,
  0x18, 0x00, 0x00, 0x00, 0x74, 0x00, 0x00, 0x00, 0x64, 0x00, 0x00, 0x00,
  0x02, 0x00, 0x00, 0x00, 0x01, 0x00, 0x00, 0x00, 0x10, 0x00, 0x00, 0x00,
  0x4c, 0x00, 0x00, 0x00, 0x73, 0x65, 0x71, 0x75, 0x65, 0x6e, 0x74, 0x69,
  0x61, 0x6c, 0x2f, 0x64, 0x65, 0x6e, 0x73, 0x65, 0x5f, 0x31, 0x2f, 0x4d,
  0x61, 0x74, 0x4d, 0x75, 0x6c, 0x3b, 0x73, 0x65, 0x71, 0x75, 0x65, 0x6e,
  0x74, 0x69, 0x61, 0x6c, 0x2f, 0x64, 0x65, 0x6e, 0x73, 0x65, 0x5f, 0x31,
  0x2f, 0x52, 0x65, 0x6c, 0x75, 0x3b, 0x73, 0x65, 0x71, 0x75, 0x65, 0x6e,
  0x74, 0x69, 0x61, 0x6c, 0x2f, 0x64, 0x65, 0x6e, 0x73, 0x65, 0x5f, 0x31,
  0x2f, 0x42, 0x69, 0x61, 0x73, 0x41, 0x64, 0x64, 0x00, 0x00, 0x00, 0x00,
  0x02, 0x00, 0x00, 0x00, 0xff, 0xff, 0xff, 0xff, 0x10, 0x00, 0x00, 0x00,
  0xb0, 0xf8, 0xff, 0xff, 0x00, 0x00, 0x0e, 0x00, 0x16, 0x00, 0x00, 0x00,
  0x08, 0x00, 0x0c, 0x00, 0x07, 0x00, 0x10, 0x00, 0x0e, 0x00, 0x00, 0x00,
  0x00, 0x00, 0x00, 0x08, 0x24, 0x00, 0x00, 0x00, 0x18, 0x00, 0x00, 0x00,
  0x0c, 0x00, 0x00, 0x00, 0x00, 0x00, 0x06, 0x00, 0x08, 0x00, 0x07, 0x00,
  0x06, 0x00, 0x00, 0x00, 0x00, 0x00, 0x00, 0x01, 0x01, 0x00, 0x00, 0x00,
  0x07, 0x00, 0x00, 0x00, 0x03, 0x00, 0x00, 0x00, 0x00, 0x00, 0x00, 0x00,
  0x04, 0x00, 0x00, 0x00, 0x03, 0x00, 0x00, 0x00, 0x0c, 0x00, 0x10, 0x00,
  0x0b, 0x00, 0x00, 0x00, 0x0c, 0x00, 0x04, 0x00, 0x0c, 0x00, 0x00, 0x00,
  0x09, 0x00, 0x00, 0x00, 0x00, 0x00, 0x00, 0x09, 0x01, 0x00, 0x00, 0x00,
  0xb8, 0xf8, 0xff, 0xff, 0x14, 0x00, 0x00, 0x00, 0x08, 0x00, 0x00, 0x00,
  0x18, 0x00, 0x00, 0x00, 0x6c, 0x00, 0x00, 0x00, 0x5c, 0x00, 0x00, 0x00,
  0x02, 0x00, 0x00, 0x00, 0x01, 0x00, 0x00, 0x00, 0x10, 0x00, 0x00, 0x00,
  0x46, 0x00, 0x00, 0x00, 0x73, 0x65, 0x71, 0x75, 0x65, 0x6e, 0x74, 0x69,
  0x61, 0x6c, 0x2f, 0x64, 0x65, 0x6e, 0x73, 0x65, 0x2f, 0x4d, 0x61, 0x74,
  0x4d, 0x75, 0x6c, 0x3b, 0x73, 0x65, 0x71, 0x75, 0x65, 0x6e, 0x74, 0x69,
  0x61, 0x6c, 0x2f, 0x64, 0x65, 0x6e, 0x73, 0x65, 0x2f, 0x52, 0x65, 0x6c,
  0x75, 0x3b, 0x73, 0x65, 0x71, 0x75, 0x65, 0x6e, 0x74, 0x69, 0x61, 0x6c,
  0x2f, 0x64, 0x65, 0x6e, 0x73, 0x65, 0x2f, 0x42, 0x69, 0x61, 0x73, 0x41,
  0x64, 0x64, 0x00, 0x00, 0x02, 0x00, 0x00, 0x00, 0xff, 0xff, 0xff, 0xff,
  0x10, 0x00, 0x00, 0x00, 0xc8, 0xf8, 0xff, 0xff, 0x92, 0xf9, 0xff, 0xff,
  0x04, 0x00, 0x00, 0x00, 0x40, 0x00, 0x00, 0x00, 0x97, 0xcc, 0x3f, 0xbe,
  0xb9, 0x21, 0xc5, 0x3e, 0xfe, 0x3a, 0xf9, 0x3e, 0xc9, 0x0b, 0x24, 0x3e,
  0xd2, 0x74, 0x81, 0x3e, 0x54, 0x87, 0x20, 0x3e, 0xef, 0x26, 0xe7, 0xbe,
  0x53, 0xee, 0x9f, 0x3e, 0x50, 0xe5, 0x1e, 0xbf, 0xa0, 0xf5, 0xdb, 0xbe,
  0xe4, 0x13, 0xcb, 0xbe, 0xab, 0x86, 0xd6, 0x3e, 0x9c, 0x80, 0x0a, 0xbf,
  0x53, 0xeb, 0xdc, 0xbe, 0xd0, 0x18, 0x2c, 0xbf, 0xa2, 0xa0, 0x16, 0xbf,
  0xc6, 0xf9, 0xff, 0xff, 0x10, 0x00, 0x00, 0x00, 0x07, 0x00, 0x00, 0x00,
  0x14, 0x00, 0x00, 0x00, 0x30, 0x00, 0x00, 0x00, 0x02, 0x00, 0x00, 0x00,
  0x01, 0x00, 0x00, 0x00, 0x10, 0x00, 0x00, 0x00, 0x19, 0x00, 0x00, 0x00,
  0x73, 0x65, 0x71, 0x75, 0x65, 0x6e, 0x74, 0x69, 0x61, 0x6c, 0x2f, 0x64,
  0x65, 0x6e, 0x73, 0x65, 0x5f, 0x32, 0x2f, 0x4d, 0x61, 0x74, 0x4d, 0x75,
  0x6c, 0x00, 0x00, 0x00, 0x58, 0xf9, 0xff, 0xff, 0x22, 0xfa, 0xff, 0xff,
  0x04, 0x00, 0x00, 0x00, 0x00, 0x04, 0x00, 0x00, 0xec, 0xbd, 0x87, 0x3e,
  0xb5, 0xf3, 0xc9, 0x3d, 0x67, 0x03, 0xda, 0x3e, 0xb8, 0xc9, 0x96, 0x3e,
  0x3a, 0xb2, 0x99, 0xbe, 0xb5, 0xcf, 0xa0, 0x3e, 0x0d, 0x0a, 0xb9, 0xbe,
  0x72, 0x62, 0x48, 0xbe, 0xab, 0x92, 0xe1, 0x3e, 0x2b, 0x3c, 0x4a, 0x3e,
  0x50, 0x59, 0x1a, 0xbf, 0xf4, 0x6c, 0xab, 0x3e, 0x85, 0x17, 0xb8, 0xbe,
  0x28, 0x0f, 0x8e, 0x3e, 0x93, 0xed, 0xa3, 0xbd, 0x20, 0x4b, 0x18, 0x3c,
  0x5f, 0x1e, 0xcb, 0x3e, 0x39, 0xdb, 0x96, 0x3d, 0x0d, 0x94, 0xca, 0x3e,
  0x33, 0xaf, 0x22, 0xbd, 0x82, 0xce, 0x6e, 0x3d, 0xe9, 0x7c, 0x76, 0xbe,
  0x23, 0xce, 0xa2, 0x3d, 0xcc, 0xe7, 0xd4, 0xbe, 0x7e, 0x10, 0x83, 0x3e,
  0xd1, 0xc0, 0xb7, 0xbe, 0x55, 0xd4, 0x89, 0x3e, 0x5f, 0x6c, 0xf8, 0xbe,
  0x53, 0x70, 0x9e, 0x3e, 0xf0, 0x57, 0xe2, 0x3d, 0xcf, 0x39, 0x8b, 0xbe,
  0x12, 0x3d, 0x37, 0x3e, 0x98, 0xda, 0xbe, 0x3e, 0x06, 0x11, 0xcb, 0xbe,
  0xbe, 0x66, 0x01, 0x3e, 0x1d, 0x86, 0x6a, 0x3d, 0x31, 0xd6, 0xad, 0x3e,
  0x19, 0x59, 0xbc, 0x3e, 0xd5, 0x9b, 0xa6, 0x3e, 0xe0, 0x40, 0xd1, 0xbc,
  0x9d, 0xbf, 0x32, 0x3e, 0x4f, 0x4b, 0x7a, 0xbd, 0x19, 0x0c, 0x45, 0xbe,
  0x0a, 0x5a, 0x80, 0xbe, 0xad, 0x4a, 0xd1, 0x3e, 0x27, 0x3d, 0x8c, 0xbd,
  0x0d, 0xf3, 0xa9, 0x3e, 0xdc, 0x7d, 0xb4, 0xbd, 0x88, 0xa3, 0x48, 0x3c,
  0x8f, 0x04, 0x31, 0xbe, 0xbe, 0xfc, 0xab, 0xbe, 0xd1, 0xf6, 0x3e, 0xbe,
  0x0b, 0x0e, 0x00, 0x3e, 0x57, 0x3b, 0x8a, 0x3e, 0x4e, 0xcd, 0xde, 0x3d,
  0x9c, 0xc2, 0x03, 0xbe, 0x6f, 0x1a, 0xc4, 0x3e, 0xac, 0xa0, 0x21, 0xbe,
  0x9d, 0x85, 0xad, 0x3e, 0x7f, 0x1a, 0x40, 0x3e, 0xf0, 0x91, 0x2e, 0x3d,
  0xf5, 0x9a, 0x65, 0x3e, 0xd0, 0x54, 0x9b, 0x3e, 0x30, 0x56, 0xdc, 0xbd,
  0x8a, 0x0c, 0x2c, 0x3e, 0x00, 0xf7, 0x06, 0x3c, 0xb0, 0xaf, 0x49, 0xbd,
  0xed, 0xf5, 0x87, 0xbe, 0x00, 0x27, 0x5a, 0xbc, 0x5e, 0x39, 0x5f, 0x3e,
  0x5a, 0x70, 0x93, 0xbe, 0x12, 0xb0, 0x61, 0xbe, 0x3f, 0x85, 0xca, 0xbe,
  0x30, 0xb1, 0x77, 0xbe, 0xf7, 0x4c, 0xb7, 0x3e, 0x34, 0x7a, 0xbb, 0x3d,
  0x0a, 0x12, 0x2f, 0x3e, 0x16, 0xad, 0x3b, 0x3e, 0x17, 0x6f, 0xd1, 0xbe,
  0x70, 0xe1, 0xad, 0xbd, 0x3b, 0x46, 0xab, 0x3e, 0x94, 0x96, 0xca, 0xbd,
  0x73, 0xfd, 0xd8, 0x3e, 0x00, 0x76, 0x73, 0xbd, 0x0f, 0x21, 0x96, 0x3e,
  0xdf, 0x7b, 0xd5, 0xbe, 0xcf, 0xfc, 0xb5, 0xbe, 0xab, 0x66, 0xc8, 0xbe,
  0x36, 0x43, 0x32, 0xbe, 0xe8, 0xb4, 0x8c, 0xbe, 0x5c, 0xee, 0xb3, 0xbe,
  0xea, 0x1f, 0x04, 0x3e, 0x43, 0x09, 0x53, 0xbe, 0xbd, 0xa5, 0xa1, 0xbe,
  0xa0, 0x9f, 0xd0, 0xbe, 0xd9, 0xcb, 0x46, 0xbe, 0x3c, 0xf1, 0xe4, 0x3d,
  0x5c, 0x39, 0x81, 0xbe, 0xeb, 0xe8, 0x66, 0xbe, 0x30, 0x79, 0xb1, 0xbc,
  0x2d, 0x90, 0xa7, 0x3e, 0x40, 0x68, 0xe4, 0x3b, 0x4c, 0x6d, 0x45, 0xbe,
  0x60, 0xae, 0x6e, 0xbc, 0x6e, 0xdc, 0xdc, 0xbe, 0x54, 0xb8, 0x02, 0xbe,
  0xa6, 0x32, 0x25, 0xbe, 0x60, 0x1f, 0x61, 0x3c, 0x1c, 0x2e, 0xec, 0x3d,
  0xb6, 0x3b, 0x59, 0x3e, 0xb2, 0x4f, 0x86, 0xbe, 0x50, 0x3d, 0x5f, 0xbe,
  0x03, 0x63, 0x0a, 0xbd, 0x1a, 0x20, 0x74, 0xbe, 0xb0, 0x89, 0x55, 0xbd,
  0x3f, 0x3f, 0x34, 0x3e, 0xb0, 0x37, 0x68, 0x3e, 0x64, 0x02, 0xfc, 0x3d,
  0x20, 0x5b, 0xcc, 0x3e, 0x1a, 0x36, 0x0c, 0xbe, 0x2c, 0x37, 0xc9, 0xbc,
  0x78, 0xe6, 0x4a, 0x3e, 0xe0, 0x7b, 0xa1, 0x3e, 0x15, 0x1d, 0x8c, 0x3e,
  0xfe, 0x36, 0x6e, 0x3e, 0x13, 0xfe, 0xb5, 0x3d, 0x8d, 0x42, 0x40, 0xbe,
  0xca, 0x0b, 0x65, 0x3e, 0x8d, 0x48, 0x78, 0xbe, 0x1e, 0xdd, 0xdd, 0xbd,
  0x7f, 0x35, 0xa2, 0x3e, 0x35, 0x76, 0xb0, 0x3d, 0x03, 0x89, 0xe1, 0x3e,
  0xf3, 0x36, 0x7d, 0xbe, 0xff, 0x34, 0xd1, 0xbe, 0xce, 0xfc, 0x77, 0x3e,
  0x69, 0xdb, 0x74, 0x3d, 0xd6, 0xc3, 0x03, 0xbf, 0xbf, 0xdc, 0x2a, 0x3f,
  0x5d, 0xf8, 0x87, 0xbf, 0x2a, 0x7f, 0x7c, 0x3e, 0x5e, 0x2e, 0x1a, 0xbf,
  0x58, 0x4a, 0x02, 0x3f, 0xbe, 0x8b, 0x0b, 0x3e, 0x57, 0xb6, 0x45, 0xbe,
  0x4c, 0xdf, 0xfc, 0x3d, 0xa4, 0x00, 0xa7, 0xbe, 0x22, 0x5d, 0xbf, 0xbe,
  0xfc, 0x74, 0xd0, 0xbe, 0xa0, 0x26, 0x29, 0xbc, 0x32, 0xad, 0x2e, 0xbe,
  0xa4, 0x08, 0xfa, 0xbd, 0x5a, 0xfe, 0x04, 0x3e, 0xac, 0xcc, 0x65, 0xbe,
  0x38, 0x94, 0x83, 0x3d, 0x00, 0x3d, 0x41, 0xbb, 0xc7, 0x87, 0xda, 0x3e,
  0xfa, 0x2a, 0x09, 0x3e, 0xfc, 0xaf, 0xd8, 0xbe, 0x5c, 0xcb, 0xb6, 0xbd,
  0xd7, 0x55, 0x5e, 0xbe, 0xf3, 0x44, 0xbe, 0xbe, 0x17, 0x0f, 0xc0, 0xbe,
  0x40, 0x24, 0x12, 0xbc, 0x6f, 0xe3, 0x90, 0xbe, 0xb0, 0x85, 0x86, 0xbe,
  0x10, 0xb8, 0x5d, 0x3d, 0xbd, 0x17, 0x6a, 0xbe, 0xce, 0xab, 0x11, 0x3e,
  0x5a, 0xe8, 0x04, 0xbe, 0x45, 0xb1, 0xdd, 0xbe, 0x03, 0x44, 0xb5, 0x3e,
  0x40, 0x46, 0xa2, 0x3b, 0xc4, 0x5b, 0xbc, 0x3d, 0xa8, 0x96, 0x09, 0x3d,
  0xb7, 0x50, 0x9e, 0xbe, 0x45, 0x93, 0x3d, 0x3e, 0x6a, 0x13, 0x07, 0xbe,
  0x8d, 0x64, 0xce, 0x3e, 0x4f, 0xbf, 0x71, 0xbe, 0x1c, 0xfd, 0x62, 0xbe,
  0x3b, 0x9c, 0x95, 0xbe, 0xc8, 0x77, 0xbd, 0x3e, 0xbc, 0xcb, 0xa2, 0x3d,
  0x9c, 0x76, 0x62, 0x3e, 0x29, 0xf7, 0xf9, 0xbd, 0x92, 0x84, 0xf8, 0x3e,
  0x5c, 0xd4, 0xb3, 0x3e, 0xf4, 0x00, 0xc1, 0x3d, 0x54, 0xcf, 0xbc, 0xbe,
  0xe8, 0x06, 0xc9, 0x3e, 0xa6, 0xc4, 0x46, 0xbe, 0x7b, 0xb1, 0xd9, 0xbe,
  0x8a, 0x64, 0xe1, 0x3d, 0xda, 0xa4, 0x1c, 0x3e, 0x9f, 0xd8, 0xfc, 0x3e,
  0x5f, 0x82, 0x2a, 0x3e, 0x6c, 0x79, 0xda, 0xbe, 0x1e, 0xb8, 0x79, 0x3e,
  0x6d, 0x99, 0xd0, 0x3e, 0x05, 0x9e, 0x83, 0x3e, 0x9d, 0xf5, 0x4a, 0xbc,
  0x21, 0x1e, 0xae, 0xbe, 0x62, 0x94, 0x8b, 0x3e, 0x6a, 0x89, 0x87, 0xbe,
  0x05, 0x05, 0x3f, 0x3e, 0x4f, 0x30, 0x14, 0xbf, 0xc7, 0xb8, 0xc8, 0x3e,
  0x2d, 0xf1, 0xd8, 0x3d, 0x04, 0x9b, 0xb0, 0x3e, 0x8a, 0x2d, 0x97, 0xbe,
  0x0d, 0x92, 0xc2, 0x3d, 0x02, 0xeb, 0xb8, 0xbe, 0xa1, 0x98, 0xbe, 0xbe,
  0x16, 0x34, 0x3c, 0x3e, 0x40, 0xe3, 0x4c, 0xbc, 0x9b, 0x5a, 0xff, 0x3b,
  0x46, 0x94, 0xba, 0xbe, 0x31, 0xe6, 0x03, 0xbe, 0xaf, 0xf6, 0x1f, 0x3e,
  0xd6, 0xc7, 0x29, 0xbe, 0x69, 0x66, 0xc7, 0x3e, 0x83, 0xfc, 0x78, 0x3e,
  0xb5, 0x85, 0xa6, 0xbe, 0x29, 0xdb, 0x98, 0x3e, 0xa6, 0x90, 0x98, 0xbe,
  0x58, 0xda, 0x32, 0xbd, 0x00, 0x0a, 0xef, 0xbe, 0xed, 0xc9, 0xab, 0x3e,
  0xb0, 0xd8, 0x59, 0x3d, 0x12, 0xd7, 0x04, 0xbf, 0x7a, 0x26, 0x30, 0x3e,
  0x41, 0xbb, 0xf1, 0xbe, 0x53, 0x08, 0x54, 0xbe, 0x52, 0x35, 0x05, 0x3d,
  0xe3, 0x20, 0xea, 0xbd, 0x07, 0x94, 0x48, 0xbe, 0x39, 0xad, 0xb0, 0xbe,
  0x95, 0xc6, 0x84, 0x3e, 0xd8, 0x46, 0x07, 0xbd, 0xd0, 0x11, 0x95, 0xbe,
  0xdc, 0x36, 0x01, 0x3e, 0x3e, 0x2c, 0x51, 0x3e, 0x4e, 0xb3, 0x5a, 0xbe,
  0xc8, 0xda, 0xee, 0xbd, 0x46, 0xdf, 0x4d, 0xbe, 0x1a, 0x06, 0x48, 0x3e,
  0xb5, 0x15, 0xb1, 0x3e, 0xc7, 0x20, 0x40, 0xbe, 0x14, 0x6c, 0x9d, 0x3e,
  0xdd, 0xe4, 0x9c, 0xbe, 0xa3, 0x73, 0xa6, 0x3c, 0x4a, 0xcc, 0xc8, 0xbe,
  0x7c, 0xba, 0xcb, 0x3e, 0x19, 0x19, 0x19, 0x3d, 0xd6, 0xc3, 0xce, 0xbe,
  0x16, 0xfe, 0xff, 0xff, 0x10, 0x00, 0x00, 0x00, 0x06, 0x00, 0x00, 0x00,
  0x14, 0x00, 0x00, 0x00, 0x30, 0x00, 0x00, 0x00, 0x02, 0x00, 0x00, 0x00,
  0x10, 0x00, 0x00, 0x00, 0x10, 0x00, 0x00, 0x00, 0x19, 0x00, 0x00, 0x00,
  0x73, 0x65, 0x71, 0x75, 0x65, 0x6e, 0x74, 0x69, 0x61, 0x6c, 0x2f, 0x64,
  0x65, 0x6e, 0x73, 0x65, 0x5f, 0x31, 0x2f, 0x4d, 0x61, 0x74, 0x4d, 0x75,
  0x6c, 0x00, 0x00, 0x00, 0xa8, 0xfd, 0xff, 0xff, 0x72, 0xfe, 0xff, 0xff,
  0x04, 0x00, 0x00, 0x00, 0x40, 0x00, 0x00, 0x00, 0x01, 0xf9, 0x90, 0x3d,
  0x4e, 0xd9, 0x01, 0x3f, 0x38, 0x43, 0xc9, 0xbe, 0x6a, 0xb9, 0x26, 0x3e,
  0xc6, 0x21, 0xaf, 0x3d, 0x42, 0x10, 0xaa, 0xbe, 0x14, 0xc2, 0x04, 0x3f,
  0xc0, 0xaa, 0xcc, 0xbd, 0xc7, 0x32, 0xf9, 0x3e, 0xe3, 0x00, 0xaf, 0x3e,
  0x31, 0xb4, 0xb0, 0xbc, 0x44, 0x4c, 0x5a, 0x3e, 0x1e, 0x86, 0xc3, 0xbe,
  0x31, 0x96, 0xdc, 0x3e, 0x3b, 0xb7, 0x2f, 0x3c, 0xb2, 0xc5, 0x7f, 0xbe,
  0xa6, 0xfe, 0xff, 0xff, 0x10, 0x00, 0x00, 0x00, 0x05, 0x00, 0x00, 0x00,
  0x14, 0x00, 0x00, 0x00, 0x2c, 0x00, 0x00, 0x00, 0x02, 0x00, 0x00, 0x00,
  0x10, 0x00, 0x00, 0x00, 0x01, 0x00, 0x00, 0x00, 0x17, 0x00, 0x00, 0x00,
  0x73, 0x65, 0x71, 0x75, 0x65, 0x6e, 0x74, 0x69, 0x61, 0x6c, 0x2f, 0x64,
  0x65, 0x6e, 0x73, 0x65, 0x2f, 0x4d, 0x61, 0x74, 0x4d, 0x75, 0x6c, 0x00,
  0x34, 0xfe, 0xff, 0xff, 0xfe, 0xfe, 0xff, 0xff, 0x04, 0x00, 0x00, 0x00,
  0x40, 0x00, 0x00, 0x00, 0x14, 0xe6, 0x31, 0x3e, 0x61, 0x09, 0x85, 0xbe,
  0x00, 0x00, 0x00, 0x00, 0x65, 0x1f, 0x7d, 0xbe, 0x72, 0x4c, 0x6c, 0x3e,
  0x00, 0x00, 0x00, 0x00, 0x48, 0x0c, 0x9d, 0xbb, 0x00, 0x00, 0x00, 0x00,
  0xcf, 0xa3, 0x00, 0x3d, 0x68, 0x65, 0x12, 0xbe, 0x2e, 0x17, 0x5c, 0x3e,
  0xbd, 0x27, 0x66, 0xbe, 0x00, 0x00, 0x00, 0x00, 0x5b, 0xa5, 0x38, 0xbe,
  0x43, 0xd3, 0x86, 0x3e, 0x00, 0x00, 0x00, 0x00, 0x32, 0xff, 0xff, 0xff,
  0x10, 0x00, 0x00, 0x00, 0x04, 0x00, 0x00, 0x00, 0x10, 0x00, 0x00, 0x00,
  0x1c, 0x00, 0x00, 0x00, 0x01, 0x00, 0x00, 0x00, 0x10, 0x00, 0x00, 0x00,
  0x0a, 0x00, 0x00, 0x00, 0x64, 0x65, 0x6e, 0x73, 0x65, 0x2f, 0x62, 0x69,
  0x61, 0x73, 0x00, 0x00, 0xb0, 0xfe, 0xff, 0xff, 0x7a, 0xff, 0xff, 0xff,
  0x04, 0x00, 0x00, 0x00, 0x40, 0x00, 0x00, 0x00, 0x5d, 0x97, 0x39, 0xbe,
  0xc3, 0xa6, 0x01, 0x3e, 0x6d, 0x52, 0x02, 0x3e, 0xda, 0xf4, 0xf9, 0x3d,
  0x00, 0x00, 0x00, 0x00, 0x00, 0x00, 0x00, 0x00, 0x00, 0x00, 0x00, 0x00,
  0xa1, 0xb5, 0xff, 0x3d, 0x33, 0x0e, 0x7a, 0x3e, 0x00, 0x00, 0x00, 0x00,
  0x00, 0x00, 0x00, 0x00, 0xae, 0xd8, 0x01, 0x3e, 0x73, 0xb6, 0x8a, 0xbe,
  0x2c, 0x0c, 0x80, 0xbe, 0x96, 0x92, 0x1e, 0x3e, 0xd2, 0x1e, 0x56, 0xbe,
  0xae, 0xff, 0xff, 0xff, 0x10, 0x00, 0x00, 0x00, 0x03, 0x00, 0x00, 0x00,
  0x10, 0x00, 0x00, 0x00, 0x24, 0x00, 0x00, 0x00, 0x01, 0x00, 0x00, 0x00,
  0x10, 0x00, 0x00, 0x00, 0x0c, 0x00, 0x00, 0x00, 0x64, 0x65, 0x6e, 0x73,
  0x65, 0x5f, 0x31, 0x2f, 0x62, 0x69, 0x61, 0x73, 0x00, 0x00, 0x00, 0x00,
  0x04, 0x00, 0x06, 0x00, 0x04, 0x00, 0x00, 0x00, 0x00, 0x00, 0x06, 0x00,
  0x08, 0x00, 0x04, 0x00, 0x06, 0x00, 0x00, 0x00, 0x04, 0x00, 0x00, 0x00,
  0x04, 0x00, 0x00, 0x00, 0x4e, 0xb1, 0x03, 0x3e, 0x00, 0x00, 0x0e, 0x00,
  0x14, 0x00, 0x04, 0x00, 0x00, 0x00, 0x08, 0x00, 0x0c, 0x00, 0x10, 0x00,
  0x0e, 0x00, 0x00, 0x00, 0x10, 0x00, 0x00, 0x00, 0x02, 0x00, 0x00, 0x00,
  0x10, 0x00, 0x00, 0x00, 0x20, 0x00, 0x00, 0x00, 0x01, 0x00, 0x00, 0x00,
  0x01, 0x00, 0x00, 0x00, 0x0c, 0x00, 0x00, 0x00, 0x64, 0x65, 0x6e, 0x73,
  0x65, 0x5f, 0x32, 0x2f, 0x62, 0x69, 0x61, 0x73, 0x00, 0x00, 0x00, 0x00,
  0x90, 0xff, 0xff, 0xff, 0x14, 0x00, 0x18, 0x00, 0x04, 0x00, 0x00, 0x00,
  0x08, 0x00, 0x0c, 0x00, 0x10, 0x00, 0x00, 0x00, 0x00, 0x00, 0x14, 0x00,
  0x14, 0x00, 0x00, 0x00, 0x14, 0x00, 0x00, 0x00, 0x01, 0x00, 0x00, 0x00,
  0x18, 0x00, 0x00, 0x00, 0x44, 0x00, 0x00, 0x00, 0x34, 0x00, 0x00, 0x00,
  0x02, 0x00, 0x00, 0x00, 0x01, 0x00, 0x00, 0x00, 0x01, 0x00, 0x00, 0x00,
  0x1d, 0x00, 0x00, 0x00, 0x73, 0x65, 0x72, 0x76, 0x69, 0x6e, 0x67, 0x5f,
  0x64, 0x65, 0x66, 0x61, 0x75, 0x6c, 0x74, 0x5f, 0x64, 0x65, 0x6e, 0x73,
  0x65, 0x5f, 0x69, 0x6e, 0x70, 0x75, 0x74, 0x3a, 0x30, 0x00, 0x00, 0x00,
  0x02, 0x00, 0x00, 0x00, 0xff, 0xff, 0xff, 0xff, 0x01, 0x00, 0x00, 0x00,
  0xfc, 0xff, 0xff, 0xff, 0x04, 0x00, 0x04, 0x00, 0x04, 0x00, 0x00, 0x00
 
};
*/
#endif //SINE_MODEL_H
